{
  "version": "1.0",
  "truncation": null,
  "padding": null,
  "added_tokens": [
    {
      "id": 0,
      "content": "<pad>",
      "single_word": false,
      "lstrip": false,
      "rstrip": false,
      "normalized": false,
      "special": true
    },
    {
      "id": 1,
      "content": "<unk>",
      "single_word": false,
      "lstrip": false,
      "rstrip": false,
      "normalized": false,
      "special": true
    },
    {
      "id": 2,
      "content": "<bos>",
      "single_word": false,
      "lstrip": false,
      "rstrip": false,
      "normalized": false,
      "special": true
    },
    {
      "id": 3,
      "content": "<eos>",
      "single_word": false,
      "lstrip": false,
      "rstrip": false,
      "normalized": false,
      "special": true
    }
  ],
  "normalizer": {
    "type": "Sequence",
    "normalizers": [
      {
        "type": "NFKC"
      }
    ]
  },
  "pre_tokenizer": {
    "type": "ByteLevel",
    "add_prefix_space": true,
    "trim_offsets": true,
    "use_regex": true
  },
  "post_processor": {
    "type": "TemplateProcessing",
    "single": [
      {
        "SpecialToken": {
          "id": "<bos>",
          "type_id": 0
        }
      },
      {
        "Sequence": {
          "id": "A",
          "type_id": 0
        }
      },
      {
        "SpecialToken": {
          "id": "<eos>",
          "type_id": 0
        }
      }
    ],
    "pair": [
      {
        "SpecialToken": {
          "id": "<bos>",
          "type_id": 0
        }
      },
      {
        "Sequence": {
          "id": "A",
          "type_id": 0
        }
      },
      {
        "SpecialToken": {
          "id": "<eos>",
          "type_id": 0
        }
      },
      {
        "Sequence": {
          "id": "B",
          "type_id": 1
        }
      },
      {
        "SpecialToken": {
          "id": "<eos>",
          "type_id": 1
        }
      }
    ],
    "special_tokens": {
      "<bos>": {
        "id": "<bos>",
        "ids": [
          2
        ],
        "tokens": [
          "<bos>"
        ]
      },
      "<eos>": {
        "id": "<eos>",
        "ids": [
          3
        ],
        "tokens": [
          "<eos>"
        ]
      }
    }
  },
  "decoder": {
    "type": "ByteLevel",
    "add_prefix_space": true,
    "trim_offsets": true,
    "use_regex": true
  },
  "model": {
    "type": "BPE",
    "dropout": null,
    "unk_token": "<unk>",
    "continuing_subword_prefix": null,
    "end_of_word_suffix": null,
    "fuse_unk": false,
    "byte_fallback": false,
    "ignore_merges": false,
    "vocab": {
      "<pad>": 0,
      "<unk>": 1,
      "<bos>": 2,
      "<eos>": 3,
      "!": 4,
      "\"": 5,
      "#": 6,
      "$": 7,
      "%": 8,
      "&": 9,
      "'": 10,
      "(": 11,
      ")": 12,
      "*": 13,
      "+": 14,
      ",": 15,
      "-": 16,
      ".": 17,
      "/": 18,
      "0": 19,
      "1": 20,
      "2": 21,
      "3": 22,
      "4": 23,
      "5": 24,
      "6": 25,
      "7": 26,
      "8": 27,
      "9": 28,
      ":": 29,
      ";": 30,
      "<": 31,
      "=": 32,
      ">": 33,
      "?": 34,
      "@": 35,
      "A": 36,
      "B": 37,
      "C": 38,
      "D": 39,
      "E": 40,
      "F": 41,
      "G": 42,
      "H": 43,
      "I": 44,
      "J": 45,
      "K": 46,
      "L": 47,
      "M": 48,
      "N": 49,
      "O": 50,
      "P": 51,
      "Q": 52,
      "R": 53,
      "S": 54,
      "T": 55,
      "U": 56,
      "V": 57,
      "W": 58,
      "X": 59,
      "Y": 60,
      "Z": 61,
      "[": 62,
      "\\": 63,
      "]": 64,
      "^": 65,
      "_": 66,
      "`": 67,
      "a": 68,
      "b": 69,
      "c": 70,
      "d": 71,
      "e": 72,
      "f": 73,
      "g": 74,
      "h": 75,
      "i": 76,
      "j": 77,
      "k": 78,
      "l": 79,
      "m": 80,
      "n": 81,
      "o": 82,
      "p": 83,
      "q": 84,
      "r": 85,
      "s": 86,
      "t": 87,
      "u": 88,
      "v": 89,
      "w": 90,
      "x": 91,
      "y": 92,
      "z": 93,
      "{": 94,
      "|": 95,
      "}": 96,
      "~": 97,
      "¡": 98,
      "¢": 99,
      "£": 100,
      "¤": 101,
      "¥": 102,
      "¦": 103,
      "§": 104,
      "¨": 105,
      "©": 106,
      "ª": 107,
      "«": 108,
      "¬": 109,
      "®": 110,
      "¯": 111,
      "°": 112,
      "±": 113,
      "²": 114,
      "³": 115,
      "´": 116,
      "µ": 117,
      "¶": 118,
      "·": 119,
      "¸": 120,
      "¹": 121,
      "º": 122,
      "»": 123,
      "¼": 124,
      "½": 125,
      "¾": 126,
      "¿": 127,
      "Â": 128,
      "Ã": 129,
      "Ä": 130,
      "Å": 131,
      "Æ": 132,
      "Ç": 133,
      "È": 134,
      "É": 135,
      "Ê": 136,
      "Ë": 137,
      "Ì": 138,
      "Í": 139,
      "Î": 140,
      "Ï": 141,
      "Ð": 142,
      "Ñ": 143,
      "Ò": 144,
      "Ó": 145,
      "Ô": 146,
      "Õ": 147,
      "Ö": 148,
      "×": 149,
      "Ø": 150,
      "Ù": 151,
      "Ú": 152,
      "Û": 153,
      "Ü": 154,
      "à": 155,
      "á": 156,
      "â": 157,
      "ã": 158,
      "ä": 159,
      "å": 160,
      "æ": 161,
      "ç": 162,
      "è": 163,
      "é": 164,
      "ê": 165,
      "ë": 166,
      "ì": 167,
      "í": 168,
      "î": 169,
      "ï": 170,
      "ð": 171,
      "ó": 172,
      "ô": 173,
      "ā": 174,
      "Ă": 175,
      "ĉ": 176,
      "Ċ": 177,
      "č": 178,
      "Ğ": 179,
      "ğ": 180,
      "Ġ": 181,
      "ġ": 182,
      "Ģ": 183,
      "ģ": 184,
      "Ĥ": 185,
      "ĥ": 186,
      "Ħ": 187,
      "ħ": 188,
      "Ĩ": 189,
      "ĩ": 190,
      "Ī": 191,
      "ī": 192,
      "Ĭ": 193,
      "ĭ": 194,
      "Į": 195,
      "į": 196,
      "İ": 197,
      "ı": 198,
      "Ĳ": 199,
      "ĳ": 200,
      "Ĵ": 201,
      "ĵ": 202,
      "Ķ": 203,
      "ķ": 204,
      "ĸ": 205,
      "Ĺ": 206,
      "ĺ": 207,
      "Ļ": 208,
      "ļ": 209,
      "Ľ": 210,
      "ľ": 211,
      "Ŀ": 212,
      "ŀ": 213,
      "Ł": 214,
      "ł": 215,
      "Ń": 216,
      "à´": 217,
      "àµ": 218,
      "àµį": 219,
      "Ġà´": 220,
      "à´¿": 221,
      "à´¨": 222,
      "à´ķ": 223,
      "àµģ": 224,
      "à´¤": 225,
      "à´¾": 226,
      "à´°": 227,
      "à´¯": 228,
      "à´Ł": 229,
      "âĢ": 230,
      "à´²": 231,
      "àµĨ": 232,
      "àµįâĢ": 233,
      "à´Ĥ": 234,
      "àµįâĢį": 235,
      "à´±": 236,
      "à´ª": 237,
      "à´®": 238,
      "à´µ": 239,
      "à´£": 240,
      "à´³": 241,
      "à´ļ": 242,
      "Ġà´ª": 243,
      "àµĭ": 244,
      "à´¸": 245,
      "Ġà´ķ": 246,
      "àµĩ": 247,
      "à´Ļ": 248,
      "Ġà´¸": 249,
      "Ġà´µ": 250,
      "àµģà´Ĥ": 251,
      "Ġà´®": 252,
      "Ġà´¨": 253,
      "Ġà´ħ": 254,
      "àµĢ": 255,
      "à´¦": 256,
      "à´·": 257,
      "Ġà´¤": 258,
      "àµĤ": 259,
      "Ġà´İ": 260,
      "àµ¼": 261,
      "à´§": 262,
      "àµ½": 263,
      "čĊ": 264,
      "à´ŀ": 265,
      "à´¶": 266,
      "à´Ĺ": 267,
      "àµį.": 268,
      "Ġà´ĩ": 269,
      "Ġà´ļ": 270,
      "à´ķà´³": 271,
      "Ġà´Ĩ": 272,
      "àµĬ": 273,
      "à´¨à´¤": 274,
      "àµģ.": 275,
      "à´¹": 276,
      "à´´": 277,
      "à´ľ": 278,
      "à´¡": 279,
      "àµįâĢĮ": 280,
      "à´Ļà´³": 281,
      "Ġà´°": 282,
      "àµ»": 283,
      "Ġà´¬": 284,
      "à´¬": 285,
      "Ġà´ľ": 286,
      "Ġà´ī": 287,
      "à´¯à´¤": 288,
      "à´¥": 289,
      "à´Ń": 290,
      "Ġà´İà´¨": 291,
      "à´µà´°": 292,
      "àµ¾": 293,
      "àµĪ": 294,
      "Ġà´Ĵ": 295,
      "à´¿.": 296,
      "à´°à´¤": 297,
      "Ġà´¶": 298,
      "à´ķà´°": 299,
      "Ġà´²": 300,
      "à´Łà´¤": 301,
      "à´¯à´®": 302,
      "à´ķà´¯": 303,
      "à´°à´®": 304,
      "à´İ": 305,
      "Ġà´¦": 306,
      "à´«": 307,
      "Ġà´Ĵà´°": 308,
      "Ġà´±": 309,
      "à´ĸ": 310,
      "àµĥ": 311,
      "à´Ĥ.": 312,
      "Ġà´Ń": 313,
      "âĢĭ": 314,
      "Ġà´Ĺ": 315,
      "Ġà´¯": 316,
      "Ġà´ªà´°": 317,
      "Ġà´ªà´±": 318,
      "Ġà´ĩà´¤": 319,
      "Ġà´ħà´¤": 320,
      "Ġà´ĩà´¨": 321,
      "à´°à´£": 322,
      "Ġà´«": 323,
      "Ġà´Ł": 324,
      "Ġà´ħà´¨": 325,
      "Ġà´¡": 326,
      "Ġà´¹": 327,
      "Ġà´¸à´®": 328,
      "Ġ1": 329,
      "à´ķàµ¾": 330,
      "à´µà´¨": 331,
      "à´¾à´Ĥ": 332,
      "Ġà´µà´°": 333,
      "à´²à´¯": 334,
      "à´°à´¸": 335,
      "àµģà´Ĥ.": 336,
      "à´µà´¸": 337,
      "à´°à´µ": 338,
      "à´Łà´¨": 339,
      "Ġà´ı": 340,
      "à´°à´ķ": 341,
      "Ġà´ĵ": 342,
      "à´¯à´ķ": 343,
      "Ġ2": 344,
      "à´ļà´¤": 345,
      "Ġà´Ī": 346,
      "à´¤à´®": 347,
      "à´ĺ": 348,
      "à´Łà´ķ": 349,
      "à´¯à´¨": 350,
      "Ġà´Ĩà´°": 351,
      "à´Ļàµ¾": 352,
      "àµĹ": 353,
      "Ġà´ķà´£": 354,
      "àµį,": 355,
      "..": 356,
      "Ġà´¤à´¨": 357,
      "Ġà´ķà´´": 358,
      "à´ªà´¤": 359,
      "à´·à´£": 360,
      "à´Łà´Ļ": 361,
      "à´¨à´Ļ": 362,
      "Ġà´¨à´²": 363,
      "Ġà´ªà´±à´ŀ": 364,
      "à´¯à´ª": 365,
      "àµ¼à´¤": 366,
      "Ġà´ħà´±": 367,
      "à´¤à´°": 368,
      "Ġà´¨à´Łà´¤": 369,
      "à´³à´¤": 370,
      "Ġà´®à´¨": 371,
      "àµįâĢĭ": 372,
      "àµ¼à´ķ": 373,
      "Ġà´ħà´µ": 374,
      "à´Łà´ª": 375,
      "à´¤à´²": 376,
      "à´Ĺà´¤": 377,
      "à´·à´¨": 378,
      "àµįâĢį,": 379,
      "Ġà´®à´±": 380,
      "à´£à´®": 381,
      "à´Łà´°": 382,
      "à´¯à´¯": 383,
      "à´¨à´®": 384,
      "à´¯à´Ļ": 385,
      "à´¤à´¤": 386,
      "à´°à´¨": 387,
      "à´¯à´°": 388,
      "à´µà´¤": 389,
      "Ġà´ħà´Ł": 390,
      "Ġà´°à´£": 391,
      "00": 392,
      "Ġ(": 393,
      "Ġà´İà´¤": 394,
      "à´²à´ª": 395,
      "àµº": 396,
      "à´²à´¤": 397,
      "à´°à´Ļ": 398,
      "àµįâĢį.": 399,
      "à´µà´¶": 400,
      "à´¨à´¯": 401,
      "à´¿à´Ĥ": 402,
      "Ġà´īà´ª": 403,
      "à´®à´¯": 404,
      "àµ½à´ķ": 405,
      "Ġà´īà´£": 406,
      "Ġà´¸à´°": 407,
      "à´±à´¤": 408,
      "à´®à´¤": 409,
      "à´İà´¸": 410,
      "Ġà´·": 411,
      "à´°à´¯": 412,
      "Ġà´ħà´¦": 413,
      "Ġà´ªà´±à´¯": 414,
      "Ġà´ķà´®": 415,
      "à´ªà´ķ": 416,
      "à´ªà´¨": 417,
      "àµĨ.": 418,
      "à´¤à´¨": 419,
      "Ġà´µà´¨": 420,
      "à´¿,": 421,
      "à´ķà´²": 422,
      "à´°à´¦": 423,
      "à´²à´ķ": 424,
      "Ġà´ķà´°": 425,
      "à´Ĥ,": 426,
      "à´Łà´¯": 427,
      "Ġà´ħà´®": 428,
      "Ġà´ıà´±": 429,
      "Ġà´²à´Ń": 430,
      "Ġà´ħà´§": 431,
      "Ġà´Ĩà´¦": 432,
      "à´ķà´¤": 433,
      "Ġà´İà´²": 434,
      "Ġà´¸à´¹": 435,
      "à´ķà´®": 436,
      "Ġà´ªà´¤": 437,
      "Ġà´ŀ": 438,
      "à´ķà´¨": 439,
      "à´¯à´±": 440,
      "Ġà´Ĩà´¶": 441,
      "Ġà´®à´¤": 442,
      "à´ªà´°": 443,
      "Ġà´ľà´¨": 444,
      "Ġà´ħà´Ń": 445,
      "à´¸à´°": 446,
      "à´µà´¯": 447,
      "Ġà´®à´£": 448,
      "Ġà´Ĩà´µà´¶": 449,
      "Ġ20": 450,
      "à´±à´µ": 451,
      "à´ķà´±": 452,
      "à´Łà´±": 453,
      "à´Ńà´µ": 454,
      "à´²à´µ": 455,
      "Ġ3": 456,
      "à´°à´µà´°": 457,
      "à´¹à´¤": 458,
      "Ġà´¬à´¨": 459,
      "Ġà´Ĩà´ķ": 460,
      "Ġà´¨à´Łà´ª": 461,
      "Ġà´¨àµ½à´ķ": 462,
      "ĠâĢ": 463,
      "à´ķà´£": 464,
      "à´°à´ŀ": 465,
      "Ġà´®à´°": 466,
      "à´·à´¤": 467,
      "àµģà´Ĥ,": 468,
      "à´ļà´¯": 469,
      "Ġà´ħà´²": 470,
      "Ġà´īà´¦": 471,
      "à´¯à´µ": 472,
      "Ġà´Ĵà´¨": 473,
      "Ġà´²à´ķ": 474,
      "àµ¼à´¨": 475,
      "Ġà´ħà´µà´°": 476,
      "à´µà´¦": 477,
      "à´§à´¤": 478,
      "à´ł": 479,
      "à´°à´§": 480,
      "àµ¼à´Ł": 481,
      "Ġà´Ĳ": 482,
      "Ġà´µà´²": 483,
      "à´¤à´ª": 484,
      "Ġà´§": 485,
      "Ġà´¸à´¨": 486,
      "à´ķà´ª": 487,
      "à´Ĳ": 488,
      "à´¯à´®à´¨": 489,
      "à´¯à´¸": 490,
      "Ġà´¨à´Łà´¨": 491,
      "Ġà´ħà´ª": 492,
      "Ġà´ħà´µà´¸": 493,
      "à´ķà´°à´£": 494,
      "à´±à´ķ": 495,
      "Ġà´Ĩà´¯": 496,
      "à´§à´¨": 497,
      "Ġà´ªà´Ļ": 498,
      "à´°à´³": 499,
      "àµ¼à´®": 500,
      "à´¬à´¨": 501,
      "Ġà´īà´ªà´¯": 502,
      "Ġà´ĩà´ª": 503,
      "à´Ļà´¨": 504,
      "à´ļà´°": 505,
      "Ġà´īà´³": 506,
      "Ġà´īà´¤": 507,
      "Ġà´ĩà´°": 508,
      "Ġà´µà´³": 509,
      "âĢĭâĢĭ": 510,
      "à´¯à´²": 511,
      "à´ľà´¨": 512,
      "à´Ĺà´®": 513,
      "Ġà´¨à´®": 514,
      "à´°à´¶": 515,
      "à´²à´¨": 516,
      "Ġà´ĵà´«": 517,
      "à´±à´¨": 518,
      "Ġà´İà´¸": 519,
      "...": 520,
      "à´®à´¸": 521,
      "Ġà´ķà´³": 522,
      "àµ»à´¸": 523,
      "à´ķà´£à´®": 524,
      "à´²à´®": 525,
      "à´¨à´²": 526,
      "à´±à´Ļ": 527,
      "à´®à´¨": 528,
      "Ġ'": 529,
      "à´±à´ª": 530,
      "Ġ5": 531,
      "à´Ĺà´Ļ": 532,
      "à´µàµ¼": 533,
      "à´·à´®": 534,
      "à´±à´¯": 535,
      "Ġ4": 536,
      "à´¡à´¨": 537,
      "Ġà´ªà´¦": 538,
      "Ġà´ħà´¸": 539,
      "à´¾à´Ĥ.": 540,
      "Ġà´İà´Ł": 541,
      "à´ķàµ¾à´ķ": 542,
      "à´ªà´£": 543,
      "Ġà´Ĩà´£": 544,
      "Ġà´¨à´Łà´ªà´Ł": 545,
      "à´°à´Ł": 546,
      "à´®à´°": 547,
      "à´±à´°": 548,
      "à´ªà´¯": 549,
      "Ġà´ķà´²": 550,
      "à´±à´±": 551,
      "à´µà´ķ": 552,
      "à´Łà´®": 553,
      "à´ľà´¯": 554,
      "à´¤àµ½": 555,
      "à´Ĩ": 556,
      "Ġà´µà´´": 557,
      "à´¤à´¯": 558,
      "à´°à´³à´¤": 559,
      "Ġà´¤à´Ł": 560,
      "Ġà´¨à´Łà´ķ": 561,
      "à´ļà´¨": 562,
      "à´ªà´±": 563,
      "à´¸à´¨": 564,
      "Ġ19": 565,
      "Ġà´ħà´ķ": 566,
      "Ġà´ªà´²": 567,
      "à´µà´¨à´¨": 568,
      "à´¦à´°": 569,
      "Ġ201": 570,
      "Ġà´®à´²à´¯": 571,
      "à´Łà´²": 572,
      "à´Ĺà´¸": 573,
      "à´¬à´°": 574,
      "à´¹à´®": 575,
      "Ġà´ļà´°": 576,
      "à´ĩ": 577,
      "Ġà´ªà´ķ": 578,
      "à´Ĥ:": 579,
      "à´°à´µàµ¼à´¤": 580,
      "Ġà´¤à´®": 581,
      "Ġà´ªà´£": 582,
      "à´ħ": 583,
      "à´µà´²": 584,
      "Ġ.": 585,
      "à´Ļàµ¾à´ķ": 586,
      "Ġà´ªà´Ł": 587,
      "Ġà´µàµ¼": 588,
      "à´¿:": 589,
      "à´İà´«": 590,
      "Ġà´Ĩà´¨": 591,
      "à´·à´¯": 592,
      "à´¿âĢĭ": 593,
      "à´¸à´®": 594,
      "à´¤à´ķ": 595,
      "à´¶à´¨": 596,
      "Ġà´ĩà´µ": 597,
      "Ġà´ħà´ŀ": 598,
      "à´·àµ»": 599,
      "à´¨à´µà´°": 600,
      "Ġà´µà´³à´°": 601,
      "à´±à´²": 602,
      "Ġà´µà´ķ": 603,
      "àµįâĢĮ.": 604,
      "Ġà´¶à´°": 605,
      "à´ŀà´¤": 606,
      "ĠâĢĺ": 607,
      "ĠĠ": 608,
      "Ġà´ĸ": 609,
      "à´µà´£": 610,
      "Ġà´ĩà´µà´°": 611,
      "Ġà´°à´ķ": 612,
      "Ġà´¶à´ķ": 613,
      "à´ªà´Ł": 614,
      "Ġà´Ĵà´´": 615,
      "Ġà´ħà´°": 616,
      "Ġà´ĩà´Ł": 617,
      "à´§à´ª": 618,
      "à´¯àµ»": 619,
      "Ġ6": 620,
      "Ġà´®à´°à´£": 621,
      "à´£à´¤": 622,
      "Ġà´ĵà´°": 623,
      "Ġ-": 624,
      "à´²à´Ļ": 625,
      "),": 626,
      "Ġà´ªà´ŀ": 627,
      "Ġà´ªà´ł": 628,
      "Ġà´¸àµ¼à´ķ": 629,
      "Ġà´ķà´Ł": 630,
      "à´°à´ĸ": 631,
      "à´ĺà´Łà´¨": 632,
      "Ġà´ĩà´²": 633,
      "Ġà´ħà´¯": 634,
      "àµ¼à´ļ": 635,
      "à´¶à´Ļ": 636,
      "à´¹à´¨": 637,
      "Ġà´¤à´¯": 638,
      "à´®à´¦": 639,
      "àµĢà´Ĥ": 640,
      "à´°à´¹": 641,
      "Ġà´®à´¹": 642,
      "Ġà´®à´¨à´¸": 643,
      "Ġà´ħà´±à´¸": 644,
      "Ġà´Ńà´°à´£": 645,
      "âĢĻ": 646,
      "Ġà´Ĩà´³": 647,
      "à´¸à´Ń": 648,
      "àµģ,": 649,
      "à´ķà´ļ": 650,
      "àµ¼à´µ": 651,
      "à´¨à´µ": 652,
      "Ġà´¨à´Ł": 653,
      "Ġà´ľà´¯": 654,
      "à´§à´®": 655,
      "Ġà´¨à´Ĺ": 656,
      "à´³à´µ": 657,
      "àµ»à´±": 658,
      "à´¶à´¤": 659,
      "Ġ7": 660,
      "à´¸à´¤": 661,
      "Ġà´īà´¯à´°": 662,
      "à´¹à´ļà´°": 663,
      "Ġà´ħà´¬": 664,
      "Ġà´Ńà´ķ": 665,
      "à´¨à´¨": 666,
      "Ġà´Ĩà´±": 667,
      "àµ»à´¡": 668,
      "à´¡à´²": 669,
      "Ġ10": 670,
      "à´£à´¨": 671,
      "Ġà´¶à´¤à´®": 672,
      "Ġà´ıà´¤": 673,
      "àµ¼à´ª": 674,
      "20": 675,
      "à´¨à´®à´¨": 676,
      "000": 677,
      "à´±à´ŀ": 678,
      "à´±à´®": 679,
      "à´¥à´¯": 680,
      "Ġà´¨à´·": 681,
      "Ġà´İà´´": 682,
      "à´®à´±": 683,
      "Ġà´ĩà´ķ": 684,
      "à´°à´µà´§": 685,
      "à´³à´µà´°": 686,
      "à´¹à´°": 687,
      "Ġà´¹à´°": 688,
      "à´¦à´®": 689,
      "Ġà´ķà´£à´ķ": 690,
      "Ġà´İà´£": 691,
      "à´ķà´µ": 692,
      "à´¤à´ķà´°": 693,
      "à´´à´¯": 694,
      "à´¨à´¸": 695,
      "à´ĺà´Ł": 696,
      "à´¨à´±": 697,
      "àµĭ.": 698,
      "àµ¼à´¦": 699,
      "à´°à´ļ": 700,
      "àµį:": 701,
      "àµ¼à´¡": 702,
      "Ġà´¤à´Ļ": 703,
      "à´¦à´¨": 704,
      "à´İà´²": 705,
      "Ġ8": 706,
      "à´²à´°": 707,
      "à´·à´Ļ": 708,
      "à´¤à´°à´µ": 709,
      "à´±àµ¼": 710,
      "à´¯à´®à´Ļ": 711,
      "à´²à´ķà´³": 712,
      "à´¸à´®à´¯": 713,
      "à´®à´²": 714,
      "Ġà´İà´ķ": 715,
      "Ġà´ħà´Ļ": 716,
      "à´ķàµ½": 717,
      "Ġ9": 718,
      "à´±à´ļ": 719,
      "Ġà´ĺ": 720,
      "à´·à´£à´¤": 721,
      "à´£à´¯": 722,
      "à´¨à´ķ": 723,
      "à´°à´£à´®": 724,
      "à´¯àµ¼": 725,
      "àµĨ,": 726,
      "à´°à´ª": 727,
      "Ġà´Ĩà´¸": 728,
      "Ġà´¸à´¤": 729,
      "Ġ,": 730,
      "à´Łàµ¼à´¨": 731,
      "Ġà´Ĩà´¤": 732,
      "Ġà´ľà´¨à´Ļ": 733,
      "à´ªà´®": 734,
      "Ġà´ĵà´Ł": 735,
      "Ġà´ħà´ªà´ķ": 736,
      "à´±à´£": 737,
      "à´ĸà´²à´¯": 738,
      "à´³à´ķ": 739,
      "à´±à´¸": 740,
      "âĢĮ": 741,
      "àµ½à´ª": 742,
      "Ġà´ķà´¤": 743,
      "Ġà´ªà´¨": 744,
      "à´Ĺà´£": 745,
      "Ġà´ķà´¯à´±": 746,
      "à´£à´±": 747,
      "à´¨à´ª": 748,
      "Ġ15": 749,
      "Ġà´īà´±à´ª": 750,
      "àµĭà´Ĥ": 751,
      "à´¸à´¯": 752,
      "Ġà´İà´Ļ": 753,
      "Ġà´ŀà´Ļ": 754,
      "Ġà´ķà´¥": 755,
      "Ġà´¸à´®à´°": 756,
      "Ġà´¨à´¨": 757,
      "à´ªà´³": 758,
      "à´ķà´°à´®": 759,
      "àµ¼à´ľ": 760,
      "Ġ12": 761,
      "à´³à´¯": 762,
      "Ġà´ıà´ķ": 763,
      "à´¾âĢĭ": 764,
      "à´ļà´ķ": 765,
      "Ġà´ĩà´Łà´ª": 766,
      "à´¯à´¤à´¯": 767,
      "à´µà´®": 768,
      "à´ļà´ª": 769,
      "à´·à´ķ": 770,
      "à´İà´¨": 771,
      "à´Ľ": 772,
      "Ġà´¤à´°": 773,
      "à´µà´±": 774,
      "à´¨à´°": 775,
      "Ġà´¤à´³": 776,
      "à´ķà´Ł": 777,
      "Ġà´¤à´²": 778,
      "Ġ:": 779,
      "Ġà´µà´¯à´¸": 780,
      "Ġà´µà´¸": 781,
      "à´µà´ļ": 782,
      "à´·à´ª": 783,
      "àµįâĢį:": 784,
      "à´´à´ķ": 785,
      "àµ¼à´¶": 786,
      "Ġà´īà´¨": 787,
      "à´µà´¨à´ķ": 788,
      "à´¤à´µ": 789,
      "Ġà´¸à´ľ": 790,
      "à´¯à´µà´°": 791,
      "àµ¾à´ª": 792,
      "à´¤à´¨à´Ļ": 793,
      "Ġà´Ĩà´Ĺ": 794,
      "Ġà´®à´²": 795,
      "Ġ11": 796,
      "Ġà´ĩà´¯": 797,
      "à´Ńà´µà´¤": 798,
      "Ġà´¨à´µ": 799,
      "à´ļà´±": 800,
      "à´¯à´µà´¸": 801,
      "Ġà´ħà´ļ": 802,
      "àµ¼à´£": 803,
      "Ġà´¬à´¸": 804,
      "à´Ĵ": 805,
      "Ġà´Ĵà´Ł": 806,
      "àµºà´Ĺ": 807,
      "Ġà´®à´¦": 808,
      "Ġà´ħà´£": 809,
      "Ġà´ªà´ķà´°": 810,
      "à´¯à´ķà´¨": 811,
      "à´·à´ķà´°": 812,
      "Ġà´®à´ķ": 813,
      "Ġà´¸à´®à´¯": 814,
      "à´°àµ»": 815,
      "à´¤à´°à´®": 816,
      "Ġà´¤à´ķà´°": 817,
      "à´µà´°à´Ļ": 818,
      "Ġà´ıà´´": 819,
      "à´Ĩà´°": 820,
      "à´®à´£": 821,
      "Ġà´µà´ļ": 822,
      "Ġà´ªà´°à´®": 823,
      "Ġà´ĩà´¸": 824,
      "à´¥à´°": 825,
      "Ġ\"": 826,
      "Ġà´ªà´¶": 827,
      "à´µà´ª": 828,
      "Ġà´ķà´Łà´¨": 829,
      "à´³à´³": 830,
      "à´³à´ľ": 831,
      "à´¶à´¯": 832,
      "Ġà´īà´¯": 833,
      "à´±à´¡": 834,
      "à´¤à´°à´£": 835,
      "àµĪà´Ĥ": 836,
      "Ġà´ķà´¸": 837,
      "Ġ200": 838,
      "à´ľà´°": 839,
      "àµģâĢĭ": 840,
      "à´¦à´¤": 841,
      "à´²à´±": 842,
      "Ġ18": 843,
      "Ġà´ħà´µà´¤à´°": 844,
      "àµĤ.": 845,
      "Ġà´¬à´¹": 846,
      "à´¯àµ½": 847,
      "Ġà´Ĩà´²": 848,
      "àµ½à´¨": 849,
      "Ġà´ħà´¡": 850,
      "à´¸à´£": 851,
      "à´³à´¨": 852,
      "àµį-": 853,
      "à´Łàµ¼": 854,
      "Ġà´ĩà´Ļ": 855,
      "à´°à´Ń": 856,
      "à´°à´£à´Ļ": 857,
      "Ġà´°à´ľ": 858,
      "à´¸à´²": 859,
      "à´£à´ķ": 860,
      "à´°à´®à´²": 861,
      "Ġà´Ĵà´ª": 862,
      "Ġà´Ķ": 863,
      "Ġà´īàµ¾à´ª": 864,
      "à´¬à´¤": 865,
      "à´ªà´¨à´Ļ": 866,
      "Ġ14": 867,
      "Ġ25": 868,
      "à´§à´°": 869,
      "à´¥à´¨": 870,
      "à´¯à´£": 871,
      "à´°à´®à´£": 872,
      "âĢĭâĢĭâĢĭ": 873,
      "Ġà´¸à´ŀ": 874,
      "Ġà´®à´§": 875,
      "à´¬àµ¼": 876,
      "à´¶à´¦": 877,
      "Ġà´®à´ķà´¨": 878,
      "Ġà´Ĵà´±": 879,
      "àµįâĢĭ.": 880,
      "à´¶à´®": 881,
      "à´¸à´«": 882,
      "Ġà´®à´ŀ": 883,
      "à´¯à´®à´¸à´Ń": 884,
      "à´ķà´¸": 885,
      "à´¤à´¦": 886,
      "Ġà´ĩà´Łà´¤": 887,
      "à´¸à´°à´¤": 888,
      "à´®à´ķ": 889,
      "Ġà´Ĭ": 890,
      "à´¥à´²à´¤": 891,
      "Ġà´¡à´¯à´±": 892,
      "Ġà´¸à´®à´¯à´¤": 893,
      "Ġà´ħà´Łà´ķ": 894,
      "à´¥à´®": 895,
      "à´¤à´ķà´³": 896,
      "à´İà´®": 897,
      "à´²à´¸": 898,
      "à´¹à´¸": 899,
      "Ġà´¨à´°": 900,
      "Ġà´Ĩà´ĺ": 901,
      "à´µà´¸à´Ļ": 902,
      "Ġà´ªà´°à´¸": 903,
      "àµºà´¸": 904,
      "Ġà´Ĩà´Ń": 905,
      "à´Ńà´¯": 906,
      "à´ľà´±": 907,
      "Ġ13": 908,
      "à´ķàµ»": 909,
      "à´Ĺà´µ": 910,
      "Ġà´Ĩà´µ": 911,
      "Ġà´ļà´Łà´Ļ": 912,
      "à´µàµ»": 913,
      "Ġà´İàµ»": 914,
      "Ġ30": 915,
      "Ġà´ħà´µà´ķ": 916,
      "Ġà´ļà´¨": 917,
      "Ġà´ªà´³": 918,
      "à´§à´¯": 919,
      "àµĭ,": 920,
      "Ġà´ħà´´": 921,
      "Ġà´±à´£": 922,
      "Ġà´īà´ļ": 923,
      "Ġ24": 924,
      "à´ĸà´°": 925,
      "à´°à´£à´¤": 926,
      "à´ªà´²": 927,
      "à´§à´¨à´¯": 928,
      "Ġ16": 929,
      "Ġà´ħà´µàµ¼": 930,
      "Ġà´µà´¹": 931,
      "àµ½à´¹": 932,
      "à´·à´µ": 933,
      "Ġà´Ńà´°": 934,
      "à´ķà´´": 935,
      "à´¸à´Ļ": 936,
      "à´Ĥ;": 937,
      "Ġà´ķà´µ": 938,
      "Ġà´Ĵà´ķ": 939,
      "Ġà´ĺà´Ł": 940,
      "Ġà´ĩà´±": 941,
      "Ġà´¸àµ¼à´µ": 942,
      "Ġà´¤à´µà´£": 943,
      "à´¤à´°à´¤": 944,
      "à´µà´§": 945,
      "à´³à´®": 946,
      "àµĭ?": 947,
      "Ġà´§à´°": 948,
      "30": 949,
      "à´¸à´±": 950,
      "à´ĸà´¤": 951,
      "Ġà´®à´²à´ª": 952,
      "à´±àµ½": 953,
      "âĢį": 954,
      "Ġà´¡à´¯à´±à´ķ": 955,
      "Ġ17": 956,
      "âĢĿ": 957,
      "Ġà´¤à´Łà´¯": 958,
      "Ġà´īà´®": 959,
      "à´·à´£à´Ļ": 960,
      "ar": 961,
      "Ġà´ķà´ª": 962,
      "Ġà´ķà´¨": 963,
      "Ġà´ĩà´·": 964,
      "àµ¼à´¥": 965,
      "à´µà´¸à´¤": 966,
      "àµį...": 967,
      "à´°à´£à´¯": 968,
      "à´³à´ª": 969,
      "ĠâĢľ": 970,
      "Ġà´ľà´¨à´±à´²": 971,
      "Ġà´®à´Łà´Ļ": 972,
      "àµ¼à´·": 973,
      "Ġà´Ĺà´µ": 974,
      "Ġà´¨à´¯": 975,
      "à´µà´Ł": 976,
      "à´¬à´±": 977,
      "Ġà´Ĩà´ª": 978,
      "19": 979,
      "Ġà´¶à´¬à´°": 980,
      "Ġà´ħà´ľ": 981,
      "Ġà´İà´±à´£": 982,
      "à´§à´µ": 983,
      "à´ĸà´ª": 984,
      "à´¤à´µà´£": 985,
      "Ġà´ħà´¶": 986,
      "Ġà´ıà´°": 987,
      "àµ¾à´ķ": 988,
      "Ġà´Ĩà´²à´ª": 989,
      "Ġà´ĵà´£": 990,
      "Ġà´īà´Ł": 991,
      "à´ļà´Ł": 992,
      "à´®à´ķà´³": 993,
      "à´¤à´Ļ": 994,
      "Ġà´Ĵà´³": 995,
      "Ġà´®à´ķà´³": 996,
      "Ġà´¡à´²": 997,
      "à´¸à´µ": 998,
      "à´ĺà´¤": 999,
      "à´¦à´¯": 1000,
      "àµį;": 1001,
      "à´¶à´ķ": 1002,
      "in": 1003,
      "ĠâĢĭ": 1004,
      "ww": 1005,
      "à´¹à´¨à´Ļ": 1006,
      "Ġà´ľà´¸": 1007,
      "Ġà´ļàµ¼à´ļ": 1008,
      "à´ļà´µà´°": 1009,
      "à´¦à´µ": 1010,
      "Ġà´Ĩà´´": 1011,
      "à´Ĺà´³": 1012,
      "à´ĺà´Łà´¨à´¯": 1013,
      "Ġà´ªà´²à´°": 1014,
      "Ġà´ĩà´Łà´¯": 1015,
      "Ġà´ĩà´±à´Ļ": 1016,
      "Ġà´°à´®": 1017,
      "à´¦à´Ĺ": 1018,
      "à´Łà´µ": 1019,
      "à´²à´§": 1020,
      "à´ķà´ķ": 1021,
      "Ġ50": 1022,
      "Ġà´ħà´µà´³": 1023,
      "à´ķàµ¼": 1024,
      "Ġà´īà´Łà´¨": 1025,
      "à´İàµ½": 1026,
      "à´°à´²": 1027,
      "à´¢": 1028,
      "Ġà´Ĩà´§": 1029,
      "àµ»à´ª": 1030,
      "à´°à´ķà´Łà´¨": 1031,
      "à´ļà´ķà´³": 1032,
      "à´Ľà´¨": 1033,
      "à´Ńà´µà´Ļ": 1034,
      "à´¤à´²à´¤": 1035,
      "à´¤à´±": 1036,
      "Ġà´İà´«": 1037,
      "ĠâĢĵ": 1038,
      "à´Ĺà´¨": 1039,
      "Ġà´¤à´ķ": 1040,
      "à´ªà´°à´®": 1041,
      "Ġà´ĵà´ª": 1042,
      "Ġà´µà´§": 1043,
      "Ġà´Ĩà´¶à´Ļ": 1044,
      "Ġà´ħà´µà´¨": 1045,
      "à´ľà´¯à´¨": 1046,
      "à´³à´Ļ": 1047,
      "àµĩ,": 1048,
      "à´·à´¯à´¤": 1049,
      "àµºà´ķ": 1050,
      "à´µà´¹": 1051,
      "à´³à´¨à´¤": 1052,
      "àµģ;": 1053,
      "Ġà´¬à´²": 1054,
      "Ġ21": 1055,
      "à´°à´®à´Ļ": 1056,
      "à´²à´ļ": 1057,
      "à´¿-": 1058,
      "Ġà´µàµ¼à´·": 1059,
      "à´¶à´ª": 1060,
      "à´¨à´¦": 1061,
      "Ġà´ĵà´¸": 1062,
      "à´¶à´µ": 1063,
      "à´°à´ľ": 1064,
      "à´Ĺà´°": 1065,
      "Ġà´Ĵà´®": 1066,
      "à´®à´ª": 1067,
      "àµį)": 1068,
      "21": 1069,
      "à´Łà´£": 1070,
      "à´¦à´Ļ": 1071,
      "ĠĠĠĠ": 1072,
      "Ġà´ķà´±": 1073,
      "à´¿;": 1074,
      "à´ķà´°à´£à´¤": 1075,
      "à´¨à´£": 1076,
      "à´¤à´µà´°": 1077,
      "à´ªà´¨à´¤": 1078,
      "Ġà´ķà´¯": 1079,
      "à´ķà´¸à´¨": 1080,
      "à´ķà´°à´¨": 1081,
      "al": 1082,
      "Ġà´¸à´²": 1083,
      "Ġà´Ĵà´¤": 1084,
      "à´¨à´Ł": 1085,
      "Ġà´ħà´ªà´ķà´Ł": 1086,
      "Ġà´¸à´ĸ": 1087,
      "à´ķà´Ļ": 1088,
      "Ġà´µà´¯": 1089,
      "Ġà´ľà´²": 1090,
      "Ġà´Ĳà´¸": 1091,
      "à´°à´ļà´°": 1092,
      "Ġà´ªà´ļ": 1093,
      "à´ĵ": 1094,
      "à´§à´Ļ": 1095,
      "à´®à´¹à´¤": 1096,
      "à´¬à´²": 1097,
      "à´¸à´°à´Ļ": 1098,
      "à´ĥ": 1099,
      "Ġà´¯à´¥": 1100,
      "à´°à´®à´¤": 1101,
      "à´°à´®à´£à´¤": 1102,
      "Ġà´ªà´´": 1103,
      "à´§à´ķà´°": 1104,
      "Ġà´ıà´ķà´¦": 1105,
      "Ġà´µà´Łà´ķ": 1106,
      "à´£à´²": 1107,
      "à´ľà´¸": 1108,
      "Ġ22": 1109,
      "Ġà´Ĺà´¤": 1110,
      "Ġà´®à´¸": 1111,
      "Ġà´¤à´°à´¤": 1112,
      "à´²à´¬": 1113,
      "Ġà´ħà´Łà´ļ": 1114,
      "à´Łà´µà´°": 1115,
      "Ġ...": 1116,
      "Ġà´«à´²": 1117,
      "à´³à´°": 1118,
      "à´ľà´ķ": 1119,
      "Ġà´¨à´Ĺà´°à´¸": 1120,
      "Ġà´Ķà´¦": 1121,
      "Ġà´ķà´¶": 1122,
      "50": 1123,
      "à´£à´µ": 1124,
      "Ġà´īà´¯àµ¼à´¨": 1125,
      "à´®à´³": 1126,
      "th": 1127,
      "à´Ĺà´²": 1128,
      "à´ķà´£à´ķ": 1129,
      "à´ķà´°à´£à´Ļ": 1130,
      "à´ªàµ¼": 1131,
      "Ġà´®à´®": 1132,
      "à´¯à´®à´¤": 1133,
      "àµģ:": 1134,
      "à´£à´°": 1135,
      "Ġà´µà´¯à´¨": 1136,
      "Ġ23": 1137,
      "à´¸àµ¼": 1138,
      "à´®à´®": 1139,
      "Ġà´®à´´": 1140,
      "àµĮ": 1141,
      "à´ĸà´²à´ķà´³": 1142,
      "Ġà´ķà´Łà´²": 1143,
      "à´ĺà´Łà´¨à´ķà´³": 1144,
      "à´¥à´²": 1145,
      "Ġà´µà´Ł": 1146,
      "Ġà´°à´µ": 1147,
      "à´·à´ķà´³": 1148,
      "Ġà´Ĩàµ¼": 1149,
      "à´Ĩàµ¼": 1150,
      "Ġà´¶à´¶": 1151,
      "Ġà´ıà´ª": 1152,
      "Ġà´¶à´¨": 1153,
      "à´ĸà´²": 1154,
      ").": 1155,
      "er": 1156,
      "Ġà´ħà´¯à´ļ": 1157,
      "àµį?": 1158,
      "Ġà´¶à´¬": 1159,
      "Ġ28": 1160,
      "à´ķà´¯à´±": 1161,
      "à´¯à´®à´ª": 1162,
      "Ġà´ľà´®": 1163,
      "à´ħà´¤": 1164,
      "Ġà´¸à´Ļ": 1165,
      "Ġà´ħà´«": 1166,
      "àµ½à´µ": 1167,
      "à´·à´£à´²": 1168,
      "à´Ĺà´ª": 1169,
      "à´µà´¸à´®": 1170,
      "à´¤à´ķà´¨": 1171,
      "à´°à´¶à´¸": 1172,
      "à´¥à´²à´Ļ": 1173,
      "Ġà´ªà´łà´¨": 1174,
      "Ġà´İà´ª": 1175,
      "àµĭâĢĭ": 1176,
      "à´ļà´µ": 1177,
      "à´²à´£": 1178,
      "om": 1179,
      "Ġà´ĩà´²à´ķ": 1180,
      "Ġà´¨à´¶": 1181,
      "à´¡à´²à´¤": 1182,
      "à´°à´ķà´Ł": 1183,
      "à´¤àµ¼": 1184,
      "Ġà´ķàµ¼": 1185,
      "à´¡à´±": 1186,
      "àµį'": 1187,
      "Ġà´İà´¯à´°": 1188,
      "Ġà´¨à´Ĺà´°à´¤": 1189,
      "Ġ100": 1190,
      "à´ªà´ķà´°": 1191,
      "Ġà´ķà´¨à´¤": 1192,
      "Ġà´ªà´²à´ª": 1193,
      "Ġà´±à´·": 1194,
      "Ġà´±à´¦": 1195,
      "à´İà´ļ": 1196,
      "Ġ26": 1197,
      "an": 1198,
      "à´Ĺà´±": 1199,
      "Ġ27": 1200,
      "à´®à´²à´¯": 1201,
      "Ġàµ½": 1202,
      "Ġà´İà´µ": 1203,
      "à´İà´¯": 1204,
      "à´¹à´Ļ": 1205,
      "à´ĸà´ķà´³": 1206,
      "à´ī": 1207,
      "Ġà´¸à´¬": 1208,
      "Ġà´īà´²": 1209,
      "Ġà´İà´¡": 1210,
      "Ġ40": 1211,
      "Ġà´ĩà´±à´ķ": 1212,
      "à´ľà´¯à´ª": 1213,
      "Ġà´İàµ½": 1214,
      "à´£à´ª": 1215,
      "Ġà´ħà´Łà´Ļ": 1216,
      "Ġà´ĩà´¦": 1217,
      "à´£à´Ļ": 1218,
      "àµįâĢįàµĨ": 1219,
      "àµ»à´ķ": 1220,
      "....": 1221,
      "Ġà´°à´¹à´¸": 1222,
      "Ġà´Ńà´°à´£à´ķ": 1223,
      "Ġà´¸à´Ń": 1224,
      "à´µà´´": 1225,
      "Ġà´®à´Ł": 1226,
      "Ġ199": 1227,
      "Ġà´®à´°à´£à´¤": 1228,
      "à´µà´µ": 1229,
      "Ġà´Ĩà´¹": 1230,
      "à´²à´¯à´¤": 1231,
      "Ġà´ħà´ªà´ķà´Łà´¤": 1232,
      "Ġà´İà´³": 1233,
      "Ġ31": 1234,
      "à´ķà´Łà´¤": 1235,
      "Ġà´ķà´³à´ķ": 1236,
      "à´µàµ¼à´£": 1237,
      "Ġà´ĩà´µà´¯": 1238,
      "à´¤à´¸": 1239,
      "Ġà´İà´ļ": 1240,
      "Ġà´¦à´ķ": 1241,
      "à´¯à´®à´²": 1242,
      "Ġà´īà´ªà´Ń": 1243,
      "à´ķà´ķà´ª": 1244,
      "Ġà´¸à´¸": 1245,
      "Ġà´īà´ªà´¦": 1246,
      "à´Łàµ»": 1247,
      "à´§à´°à´¨": 1248,
      "Ġà´µàµ¼à´·à´¤": 1249,
      "à´¤à´£à´®": 1250,
      "àµįâĢį-": 1251,
      "Ġ0": 1252,
      "Ġà´¶à´®": 1253,
      "Ġà´¤à´²à´¯": 1254,
      "à´¦à´°à´¨": 1255,
      "Ġà´¸à´Ńà´¯": 1256,
      "Ġà´ĩà´®": 1257,
      "Ġà´Ĳà´ķ": 1258,
      "à´¸à´¸": 1259,
      "Ġà´ªà´´à´¯": 1260,
      "à´®à´µ": 1261,
      "àµįâĢĮ,": 1262,
      "Ġà´¤à´Łà´¸": 1263,
      "Ġà´¤à´¦": 1264,
      "à´¾.": 1265,
      "Ġà´ħà´µà´¸à´°": 1266,
      "àµĨà´Ĥ": 1267,
      "Ġà´ıà´ľà´¨": 1268,
      "à´µà´³": 1269,
      "à´ļà´¨à´¯": 1270,
      "àµĨâĢĭ": 1271,
      "à´ªà´Ļ": 1272,
      "on": 1273,
      "Ġà´µà´£": 1274,
      "à´µà´ķà´²": 1275,
      "à´ªà´ķà´®": 1276,
      "Ġà´ķà´Łà´¤": 1277,
      "à´®àµ¼à´¶": 1278,
      "Ġà´ķà´ķ": 1279,
      "à´·à´ķà´¨": 1280,
      "Ġà´ķà´Łà´ķ": 1281,
      "à´¯à´Ł": 1282,
      "à´µà´³à´¤": 1283,
      "Ġà´®à´´à´¯": 1284,
      "à´¿)": 1285,
      "à´®àµ»": 1286,
      "Ġ2019": 1287,
      "Ġà´ĺà´Łà´ķ": 1288,
      "Ġà´¡àµ½à´¹": 1289,
      "à´¶à´°": 1290,
      "à´ªà´±à´®": 1291,
      "Ġà´«à´£": 1292,
      "à´®à´Ļ": 1293,
      "à´¾à´Ĥ,": 1294,
      "Ġà´¤à´Łà´µ": 1295,
      "à´¬à´Ļ": 1296,
      "Ġ2020": 1297,
      "Ġà´¸à´µ": 1298,
      "à´¡à´°": 1299,
      "à´µà´¸à´µ": 1300,
      "à´¦à´Ĺà´¤": 1301,
      "Ġà´ľà´¡": 1302,
      "à´®à´¤à´²": 1303,
      "Ġà´ĩà´°à´Ł": 1304,
      "à´Ĳà´¯": 1305,
      "à´³à´±": 1306,
      "Ġà´īà´°": 1307,
      "Ġ29": 1308,
      "à´§à´ķ": 1309,
      "à´¤à´ķà´¤": 1310,
      "à´«à´²": 1311,
      "Ġà´īà´Łà´®": 1312,
      "àµĪ:": 1313,
      "Ġà´ĸà´¤": 1314,
      "à´´à´¤": 1315,
      "à´¸à´ķ": 1316,
      "Ġà´ħà´µà´¯": 1317,
      "Ġà´ħà´Ĺ": 1318,
      "Ġà´ļà´¤": 1319,
      "Ġà´ľà´¨à´¤": 1320,
      "à´ľà´®": 1321,
      "àµºà´²": 1322,
      "10": 1323,
      "à´İàµ»": 1324,
      "à´¥à´¤": 1325,
      "Ġà´ļà´²à´ļ": 1326,
      "àµ¼à´Ĺ": 1327,
      "à´ķà´ķà´³": 1328,
      "à´¹à´¨à´¤": 1329,
      "Ġà´¦à´®": 1330,
      "Ġà´Ĺà´°": 1331,
      "Ġà´ħà´°à´Ļ": 1332,
      "à´µà´Ń": 1333,
      "Ġà´ķà´²à´ķ": 1334,
      "Ġà´ľà´¨à´±àµ½": 1335,
      "à´¯à´¶": 1336,
      "à´ŀà´ª": 1337,
      "Ġà´ĩàµ»à´¸": 1338,
      "à´Ńà´°à´£": 1339,
      "à´·à´¯à´Ļ": 1340,
      "à´¤à´£": 1341,
      "à´¶à´¨à´¤": 1342,
      "Ġà´¤à´Łà´ŀ": 1343,
      "à´¯à´¦": 1344,
      "com": 1345,
      "Ġà´¤à´£": 1346,
      "à´Ļà´²": 1347,
      "à´Ĺà´¬": 1348,
      "Ġà´ªà´¦à´µ": 1349,
      "à´¹à´µ": 1350,
      "Ġà´¨à´Ĺà´°à´¸à´Ń": 1351,
      "Ġà´¸à´¦": 1352,
      "or": 1353,
      "ĠM": 1354,
      "Ġà´ħà´³à´µ": 1355,
      "à´¿âĢĭàµĨ": 1356,
      "Ġà´ħà´ķà´²": 1357,
      "àµ¼à´Ń": 1358,
      "à´°à´¸à´°": 1359,
      "à´µà´¨à´¯": 1360,
      "Ġà´Ĺà´£": 1361,
      "à´ªà´¦": 1362,
      "Ġà´ıà´·": 1363,
      "Ġà´ħà´µà´§": 1364,
      "Ġà´¨à´¦": 1365,
      "à´µà´¤à´¨": 1366,
      "à´°à´·": 1367,
      "à´ļà´²": 1368,
      "Ġà´İà´¯": 1369,
      "à´²àµ¼": 1370,
      "Ġà´ĩàµ»": 1371,
      "àµįâĢĻ": 1372,
      "-à´¾à´Ĥ": 1373,
      "à´¯à´£à´®": 1374,
      "Ġà´ĵà´ķ": 1375,
      "à´ĺà´°": 1376,
      "à´´à´²": 1377,
      "15": 1378,
      "Ġà´¸à´®à´°à´¤": 1379,
      "Ġà´¨à´´": 1380,
      "Ġà´ĩà´µàµ¼": 1381,
      "à´ªà´¸": 1382,
      "www": 1383,
      "Ġà´¸à´¹à´ķà´°à´£": 1384,
      "Ġ2018": 1385,
      "Ġà´¬à´ľà´±": 1386,
      "Ġà´ļà´Ł": 1387,
      "à´²à´²": 1388,
      "à´ĩà´¨": 1389,
      "à´¤à´¨à´¤": 1390,
      "à´µàµ¼à´ķ": 1391,
      "Ġà´Ĭà´°": 1392,
      "à´§à´¨à´µ": 1393,
      "Ġ2016": 1394,
      "Ġà´ħà´µà´¶": 1395,
      "à´¤à´Ł": 1396,
      "Ġà´Ĳà´ª": 1397,
      "Ġà´ħà´Łà´¯": 1398,
      "Ġ60": 1399,
      "à´¸à´Ńà´¯": 1400,
      "à´µà´Ļ": 1401,
      "Ġ35": 1402,
      "àµ¼à´¶à´¨": 1403,
      "à´Ĥ-": 1404,
      "à´İà´ĩ": 1405,
      "à´§à´¨à´Ļ": 1406,
      "à´¿'": 1407,
      "Ġà´ĩà´³à´µ": 1408,
      "Ġà´Ľ": 1409,
      "à´ľàµ»": 1410,
      "Ġà´®à´ľ": 1411,
      "Ġà´Ĩàµ»à´¡": 1412,
      "à´¸à´ª": 1413,
      "à´¡àµ½à´¹": 1414,
      "ĠC": 1415,
      "à´¦àµ¼à´¶": 1416,
      "Ġà´¸à´®àµ¼à´ª": 1417,
      "99": 1418,
      "à´ķà´¤à´¯": 1419,
      "Ġ''": 1420,
      "Ġà´ľà´¨à´ª": 1421,
      "Ġà´¸à´ļ": 1422,
      "à´µàµ½": 1423,
      "àµ¼à´¬": 1424,
      "à´°à´¤à´¯": 1425,
      "Ġà´ħà´¹à´®": 1426,
      "18": 1427,
      "à´ªà´£à´Ļ": 1428,
      "àµĩâĢĭ": 1429,
      "à´¿...": 1430,
      "à´¹àµ»": 1431,
      "Ġà´ħàµ½": 1432,
      "à´¶à´¦à´®": 1433,
      "Ġ198": 1434,
      "à´£àµ»": 1435,
      "ti": 1436,
      "Ġà´īà´¯àµ¼à´¤": 1437,
      "Ġà´ļà´ķ": 1438,
      "Ġà´Ńàµ¼à´¤": 1439,
      "à´¨àµ½": 1440,
      "Ġà´ķà´ŀ": 1441,
      "Ġà´Ĺà´µà´°": 1442,
      "Ġà´±à´¹": 1443,
      "à´°à´£à´ķ": 1444,
      "Ġà´Ĩà´¦à´°": 1445,
      "à´²à´µà´´": 1446,
      "à´Łà´ķà´¯": 1447,
      "Ġ2017": 1448,
      "à´ľà´¨à´Ļ": 1449,
      "Ġà´ªà´²à´¤": 1450,
      "Ġà´µà´°à´µ": 1451,
      "à´Ĥ)": 1452,
      "à´·à´£à´µ": 1453,
      "25": 1454,
      "à´ķà´¬": 1455,
      "!!": 1456,
      "Ġà´ķà´ļ": 1457,
      "à´¯à´µà´¯": 1458,
      "à´Ī": 1459,
      "tha": 1460,
      "à´ªà´µ": 1461,
      "Ġà´¤à´²à´¤": 1462,
      "à´°à´¦à´®": 1463,
      "à´ķà´¥": 1464,
      "à´ªà´ķà´¨": 1465,
      "à´·à´£à´®": 1466,
      "Ġ;": 1467,
      "Ġ|": 1468,
      "à´ķà´°à´¯": 1469,
      "Ġà´İà´ŀ": 1470,
      "à´¯à´§": 1471,
      "Ġà´ĵà´¹à´°": 1472,
      "Ġà´§à´¨": 1473,
      "Ġ?": 1474,
      "à´°à´¦à´°": 1475,
      "Ġà´ĵàµºà´²": 1476,
      "à´ĸà´¯": 1477,
      "à´ľà´¯à´¤": 1478,
      "à´ľà´²": 1479,
      "Ġà´µàµ¼à´¦": 1480,
      "à´·à´£àµ½": 1481,
      "à´°à´ķà´³": 1482,
      "var": 1483,
      "à´¡àµ»à´±": 1484,
      "à´Łàµ½": 1485,
      "''": 1486,
      "ala": 1487,
      "40": 1488,
      "à´ªà´ª": 1489,
      "re": 1490,
      "àµģà´Ĥ;": 1491,
      "17": 1492,
      "à´¯àµ¼à´®": 1493,
      "à´¯à´®à´¸à´Ńà´¯": 1494,
      "Ġà´²à´£": 1495,
      "à´¨à´µàµ¼à´ķ": 1496,
      "ĠA": 1497,
      "à´°à´£à´µ": 1498,
      "Ġà´°à´ŀ": 1499,
      "à´¤à´³": 1500,
      "à´°à´®à´¨": 1501,
      "Ġ2014": 1502,
      "Ġà´ħà´ĸ": 1503,
      "àµ¾à´¡": 1504,
      "Ġà´īà´ªà´°": 1505,
      "Ġà´ĩà´Łà´µ": 1506,
      "à´¯à´ķà´®": 1507,
      "âĢĭâĢĭâĢĭâĢĭ": 1508,
      "Ġà´µàµ»": 1509,
      "à´ĩà´¤": 1510,
      "àµģ...": 1511,
      "à´¯à´ķà´³": 1512,
      "Ġà´µàµ¼à´§": 1513,
      "vartha": 1514,
      "Ġà´¤à´¤": 1515,
      "60": 1516,
      "à´®à´ļà´¨": 1517,
      "à´ķà´°à´£à´µ": 1518,
      "22": 1519,
      "àµįâĢį;": 1520,
      "Ġà´ħà´±à´¬": 1521,
      "à´Ńà´ķ": 1522,
      "à´¦à´¨à´¯": 1523,
      "à´¤à´ķà´Ļ": 1524,
      "àµįâĢį)": 1525,
      "à´Ĺà´£à´¨": 1526,
      "àµ½à´¸": 1527,
      "Ġà´¸à´¹à´ķà´°": 1528,
      "Ġà´ħà´µàµ¼à´ķ": 1529,
      "à´¡à´£": 1530,
      "à´ķà´³à´¯": 1531,
      "Ġà´ıàµ¼à´ª": 1532,
      "à´ļà´¸": 1533,
      "à´Łà´Ł": 1534,
      "Ġà´Īà´Ł": 1535,
      "Ġà´ĵà´Ĺà´¸": 1536,
      "Ġà´±à´¸": 1537,
      "Ġà´¦à´°": 1538,
      "à´¨à´¦à´£": 1539,
      "16": 1540,
      "à´Ńà´µà´ª": 1541,
      "Ġà´İà´®": 1542,
      "Ġà´¸à´¯": 1543,
      "Ġà´ľà´¨à´ķ": 1544,
      "à´Ĥ'": 1545,
      "Ġ2021": 1546,
      "Ġà´¸à´ª": 1547,
      "à´Łà´£à´®": 1548,
      "à´³à´¸": 1549,
      "àµĤà´Ĥ": 1550,
      "ĠS": 1551,
      "à´¬à´¸": 1552,
      "Ġà´ħà´¨à´§": 1553,
      "à´´à´ª": 1554,
      "Ġà´İà´¬": 1555,
      "45": 1556,
      "à´²à´¯à´³à´µ": 1557,
      "Ġà´ħà´ªà´®": 1558,
      "Ġà´ĵà´³": 1559,
      "12": 1560,
      "Ġà´ĩà´°à´¯": 1561,
      "à´ªàµ»": 1562,
      "à´ªà´±à´¯": 1563,
      "à´µà´¨à´Ļ": 1564,
      "à´ªà´°à´¯": 1565,
      "à´ªà´±à´ŀ": 1566,
      "Ġà´ķà´¥à´¯": 1567,
      "70": 1568,
      "Ġ45": 1569,
      "à´°à´ªà´¤": 1570,
      "ĠâĢĿ": 1571,
      "à´¸àµ½": 1572,
      "Ġà´īà´Łàµ»": 1573,
      "àµĩà´Ĥ": 1574,
      "Ġà´ĩà´¬": 1575,
      "à´¨à´µàµ¼": 1576,
      "àµ¼à´£à´®": 1577,
      "Ġà´Īà´¸": 1578,
      "à´¨à´ªà´ķ": 1579,
      "à´²à´¯à´Ļ": 1580,
      "Ġà´ķàµº": 1581,
      "à´¯à´ķàµ»": 1582,
      "Ġà´ªà´®": 1583,
      "Ġà´«à´²à´ª": 1584,
      "à´ĸà´®": 1585,
      "Ġà´ªà´Łà´°": 1586,
      "à´¿âĢĻ": 1587,
      "Ġà´ĵà´µà´±": 1588,
      "Ġà´°à´¸": 1589,
      "à´±à´«": 1590,
      "àµ½à´¤": 1591,
      "Ġà´²à´¹à´°": 1592,
      "àµįàµį": 1593,
      "Ġà´¤à´²à´®": 1594,
      "à´²à´ĺà´Ł": 1595,
      "à´¡à´¯": 1596,
      "Ġà´ĵà´¡": 1597,
      "à´Ńà´µà´®": 1598,
      "Ġà´īà´±à´ķ": 1599,
      "à´ªà´¨à´¯": 1600,
      "Ġà´¨à´Ĺà´°": 1601,
      "Ġà´®à´¯à´ķ": 1602,
      "ÂŃ": 1603,
      "à´®à´¤à´²à´¯": 1604,
      "à´ªà´¨à´®": 1605,
      "Ġà´ľà´¯à´°": 1606,
      "Ġà´Ńà´°à´£à´ĺà´Łà´¨": 1607,
      "à´Łàµ¼à´®": 1608,
      "Ġà´µàµ¼à´·à´Ļ": 1609,
      "àµįâĢį...": 1610,
      "Ġà´²à´³": 1611,
      "à´µà´°à´£": 1612,
      "Ġà´®à´²à´¬": 1613,
      "Ġ2015": 1614,
      "ĠN": 1615,
      "di": 1616,
      "à´ļà´¯à´ª": 1617,
      "à´¡à´²à´Ļ": 1618,
      "Ġà´¤à´²à´¸": 1619,
      "Ġà´ĩà´ŀ": 1620,
      "à´®à´¶": 1621,
      "as": 1622,
      "àµĨ...": 1623,
      "à´¥à´µ": 1624,
      "Ġà´ķà´®à´¨": 1625,
      "Ġà´¶à´Ļ": 1626,
      "à´Ńà´¤": 1627,
      "Ġà´Ĩà´ļ": 1628,
      "Ġ80": 1629,
      "Ġà´¸à´£": 1630,
      "àµį..": 1631,
      "Ġ500": 1632,
      "Ġà´ªà´łà´¨à´¤": 1633,
      "Ġà´ķàµ¼à´·à´ķ": 1634,
      "à´Łà´ķà´°": 1635,
      "es": 1636,
      "à´±àµ»": 1637,
      "Ġà´ħà´ķà´¤": 1638,
      "à´®à´ªà´ŀ": 1639,
      "en": 1640,
      "à´Ĵà´°": 1641,
      "àµĪ.": 1642,
      "Ġà´ľà´ª": 1643,
      "à´¿(": 1644,
      "Ġà´ªà´£à´®": 1645,
      "Ġà´ľà´¨à´¸": 1646,
      "Ġà´ıà´²": 1647,
      "Ġà´ļà´Ļ": 1648,
      "Ġà´¤à´¸": 1649,
      "à´ĸà´Ļ": 1650,
      "Ġà´ĵàµ¼à´®": 1651,
      "Ġà´ķà´·": 1652,
      "à´¦à´²": 1653,
      "à´ķà´Łà´ķ": 1654,
      "Ġà´µà´¯à´±": 1655,
      "à´Łà´ļ": 1656,
      "Ġà´¶à´¸": 1657,
      "Ġ70": 1658,
      "14": 1659,
      "Ġà´Ĩà´¨à´¨": 1660,
      "à´Ĳà´İ": 1661,
      "Ġà´±àµºà´¸": 1662,
      "à´°à´±": 1663,
      "à´ļà´®": 1664,
      "à´°à´°": 1665,
      "à´¤à´¶": 1666,
      "à´Ĥ...": 1667,
      "Ġà´¹à´¸": 1668,
      "à´¶à´¨à´®": 1669,
      "à´ķà´°à´µ": 1670,
      "ad": 1671,
      "Ġà´ķà´®à´²": 1672,
      "Ġà´ħà´·": 1673,
      "Ġà´¡à´¬": 1674,
      "Ġ32": 1675,
      "Ġà´ķà´Łà´¯": 1676,
      "11": 1677,
      "47": 1678,
      "àµįâĢį'": 1679,
      "à´¤àµ»": 1680,
      "Ġ)": 1681,
      "Ġà´ķà´µà´°": 1682,
      "Ġà´¨à´¸": 1683,
      "Ġà´ķàµ¼à´£": 1684,
      "Ġà´¹àµ¼à´ľ": 1685,
      "Ġà´Ĩà´¯à´¤": 1686,
      "à´ķà´°à´°": 1687,
      "à´ķà´Łà´¨": 1688,
      "à´¬à´¯": 1689,
      "Ġà´®à´®à´¤": 1690,
      "Ġà´Ĩà´Ł": 1691,
      "à´¹à´°à´®": 1692,
      "à´¤à´®à´²": 1693,
      "à´¾,": 1694,
      "Ġà´ļà´²": 1695,
      "Ġà´¨à´ķ": 1696,
      "à´²à´Ń": 1697,
      "Ġà´ħà´¨à´¨": 1698,
      "à´ķà´°à´£à´®": 1699,
      "à´µà´°à´µ": 1700,
      "Ġà´«à´²à´®": 1701,
      "à´¤à´ķàµ¼": 1702,
      "Ġà´Ĩà´µà´°": 1703,
      "Ġà´¬à´¯": 1704,
      "ĠĠĠĠĠĠĠĠ": 1705,
      "Ġà´§à´¨à´®à´¨": 1706,
      "Ġà´ªà´¬": 1707,
      "Ġ197": 1708,
      "àµ¼à´¬à´¨": 1709,
      "Ġà´µàµ¼à´Ĺ": 1710,
      "àµ»à´®": 1711,
      "à´ľàµ»à´¸": 1712,
      "à´ĺà´®": 1713,
      "Ġà´ķà´ł": 1714,
      "35": 1715,
      "80": 1716,
      "Ġà´¬à´·": 1717,
      "à´°à´¬": 1718,
      "Ġà´±à´«": 1719,
      "Ġà´īà´ªà´ķà´°à´£à´Ļ": 1720,
      "à´¡à´Ļ": 1721,
      "ĠP": 1722,
      "à´ŀà´Ļ": 1723,
      "Ġà´īà´±": 1724,
      "à´¯à´®à´µ": 1725,
      "à´ĺà´Ļ": 1726,
      "Ġà´¸à´®à´¯à´®": 1727,
      "à´ľà´¯à´®": 1728,
      "à´¨à´¶": 1729,
      "à´¯à´Ń": 1730,
      "à´ĤâĢĻ": 1731,
      "Ġ90": 1732,
      "Ġà´¦à´²": 1733,
      "Ġà´¶à´¤": 1734,
      "Ġ36": 1735,
      "à´¿âĢĭâĢĭâĢĭ": 1736,
      "Ġà´İà´±": 1737,
      "à´¤à´ļ": 1738,
      "à´³à´µàµ¼": 1739,
      "àµĩ.": 1740,
      "à´°à´®à´®": 1741,
      "à´´à´ŀ": 1742,
      "àµ¾à´Ł": 1743,
      "à´ĺà´µ": 1744,
      "Ġà´īà´Łà´®à´¸": 1745,
      "à´£à´ļ": 1746,
      "à´¸à´¹": 1747,
      "Ġà´ħà´Ńà´¯": 1748,
      "àµį),": 1749,
      "Ġà´±à´µà´¨": 1750,
      "à´ķà´Łà´²": 1751,
      "à´¨à´ķà´¤": 1752,
      "âĢĭàµĨ": 1753,
      "à´±àµ»à´¸": 1754,
      "Ġà´®à´°à´£à´ª": 1755,
      "le": 1756,
      "à´®à´§": 1757,
      "Ġà´°à´¤": 1758,
      "àµį(": 1759,
      "Ġà´ħàµ¼": 1760,
      "at": 1761,
      "à´¯à´µàµ¼": 1762,
      "à´ªà´¬": 1763,
      "Ġà´®à´±à´¨": 1764,
      "à´Łà´ªà´Ł": 1765,
      "Ġ..": 1766,
      "Ġà´¨à´¯à´¤": 1767,
      "à´°à´³à´¯": 1768,
      "Ġà´ħà´µà´Ĺà´£": 1769,
      "Ġà´¦à´¶": 1770,
      "24": 1771,
      "à´ĤâĢĭ": 1772,
      "Ġà´ħà´¥à´µ": 1773,
      "à´¸àµº": 1774,
      "ĠR": 1775,
      "Ġà´īà´±à´ļ": 1776,
      "à´¤à´²à´¯": 1777,
      "Ġà´®à´±à´ķ": 1778,
      "Ġà´ķà´¥à´ķà´³": 1779,
      "Ġà´Ĺàµ¼à´Ń": 1780,
      "à´ĸà´£": 1781,
      "à´¬à´µ": 1782,
      "Ġà´īà´±à´Ļ": 1783,
      "à´µà´¶à´¤": 1784,
      "à´¥à´¤à´¯": 1785,
      "à´µà´¶à´Ļ": 1786,
      "à´°à´¤à´®": 1787,
      "à´«à´°": 1788,
      "àµ½à´¡": 1789,
      "Ġà´ħà´¯à´ķ": 1790,
      "àµĢâĢĭ": 1791,
      "Ġà´Ĩà´Ĺà´¸": 1792,
      "à´¸à´ŀ": 1793,
      "à´²àµ»à´¸": 1794,
      "à´¯à´µà´ķ": 1795,
      "Ġà´¹à´¨": 1796,
      "Ġ33": 1797,
      "23": 1798,
      "Ġà´ħà´²à´ķ": 1799,
      "à´ľà´¯àµ»": 1800,
      "Ġà´¤à´µà´£à´¯": 1801,
      "à´ķà´¸à´¨à´¤": 1802,
      "à´ĸà´¨": 1803,
      "à´¯à´ľ": 1804,
      "à´¿âĢĭâĢĭ": 1805,
      "à´ı": 1806,
      "Ġà´®à´ķàµ»": 1807,
      "am": 1808,
      "à´¤à´ķàµ¾": 1809,
      "Ġà´µà´§à´¶": 1810,
      "13": 1811,
      "à´Ĺà´ķ": 1812,
      "à´¸à´ķà´³": 1813,
      "à´¨à´¤à´²": 1814,
      "Ġ2013": 1815,
      "à´®à´Ł": 1816,
      "Ġà´ľà´°": 1817,
      "Ġà´¸à´ķ": 1818,
      "Ġà´ħà´¹": 1819,
      "à´¯à´¤à´ķà´³": 1820,
      "Ġ75": 1821,
      "Ġà´¸à´®à´¨": 1822,
      "Ġà´ªà´¯": 1823,
      "à´Łà´¨à´¤": 1824,
      "à´ļà´¨à´ķà´³": 1825,
      "Ġ48": 1826,
      "Ġà´Ńà´°à´£à´¤": 1827,
      "à´§à´¨à´ķà´³": 1828,
      "àµ½à´®": 1829,
      "Ġà´¸à´¹à´ª": 1830,
      "à´³à´²": 1831,
      "àµ»à´µà´²": 1832,
      "Ġà´īà´ªà´¤": 1833,
      "48": 1834,
      "à´¸àµ¼à´ķ": 1835,
      "Ġ2011": 1836,
      "Ġà´¤à´²à´¶": 1837,
      "àµ¼à´¸": 1838,
      "Ġà´®àµ¼à´¦": 1839,
      "Ġà´Ĩàµ¼à´ķ": 1840,
      "Ġà´ķà´°à´¯": 1841,
      "à´Łà´ªà´°": 1842,
      "à´¡à´ķ": 1843,
      "Ġà´¨à´Ĺà´°à´Ļ": 1844,
      "àµĭ:": 1845,
      "Ġ37": 1846,
      "à´µà´¨à´¤": 1847,
      "à´¿âĢĮ": 1848,
      "à´®à´°à´£": 1849,
      "à´¯à´ķà´°à´®": 1850,
      "Ġà´Ĺà´³": 1851,
      "à´¦à´¨à´¤": 1852,
      "àµģ..": 1853,
      "à´Ĺà´®à´¨": 1854,
      "à´Ļà´°": 1855,
      "à´¤à´°à´ķ": 1856,
      "Ġ196": 1857,
      "à´ļàµ¼": 1858,
      "Ġà´Ĩà´®": 1859,
      "àµįâĢĭâĢĭ": 1860,
      "Ġà´®à´Łà´ķ": 1861,
      "28": 1862,
      "à´ªà´£à´¤": 1863,
      "à´´à´µ": 1864,
      "à´ªàµ½": 1865,
      "àµĩ?": 1866,
      "à´®àµ¾": 1867,
      "49": 1868,
      "à´·à´°": 1869,
      "Ġà´ľà´¨à´µ": 1870,
      "à´Łàµ¼à´ļ": 1871,
      "Ġ/": 1872,
      "Ġà´¸àµ¼à´µà´ķà´²": 1873,
      "à´°à´¸à´®": 1874,
      "à´ħà´¨": 1875,
      "26": 1876,
      "à´µà´°à´¤": 1877,
      "Ġ[": 1878,
      "Ġà´µà´ŀ": 1879,
      "is": 1880,
      "àµģà´Ĥ...": 1881,
      "à´±à´ªà´¤": 1882,
      "Ġà´Ĩà´ķà´°": 1883,
      "kvartha": 1884,
      "à´¯àµ¼à´¤": 1885,
      "Ġà´¨à´Łàµ»": 1886,
      "à´·à´£à´°": 1887,
      "Ġà´¦à´³": 1888,
      "Ġà´°à´¹": 1889,
      "Ġà´Ńà´µà´¨": 1890,
      "àµ¼à´µà´¹": 1891,
      "à´¥à´ķà´³": 1892,
      "à´³à´µàµ¼à´ķ": 1893,
      "à´ħà´®": 1894,
      "à´¬à´ķ": 1895,
      "à´Ĺà´¯": 1896,
      "à´¹àµ»à´²": 1897,
      "à´Łà´ķà´³": 1898,
      "Ġà´ķà´Łà´ķà´³": 1899,
      "Ġà´İà´¯àµ¼": 1900,
      "Ġà´Ķà´Ł": 1901,
      ",,": 1902,
      "Ġà´µà´¯à´²": 1903,
      "Ġà´µàµ¼à´ķ": 1904,
      "à´Łà´ķà´¤": 1905,
      "Ġà´ħà´µà´¤": 1906,
      "Ġm": 1907,
      "à´¯à´£à´¨": 1908,
      "ing": 1909,
      "à´ŀà´¦": 1910,
      "àµ½à´«": 1911,
      "Ġà´¤à´²à´ķ": 1912,
      "âĢĵ": 1913,
      "à´¨àµ¼": 1914,
      "ĠI": 1915,
      "Ġà´ħà´²à´Ļ": 1916,
      "à´Ĩà´¨": 1917,
      "à´ŀà´¯": 1918,
      "àµ¼à´ĺ": 1919,
      "Ġà´İà´°": 1920,
      "Ġà´«à´¯à´²": 1921,
      "Ġà´¨à´Ĺà´°à´¸à´Ńà´¯": 1922,
      "Ġà´ħà´¯à´²": 1923,
      "go": 1924,
      "Ġà´µà´´à´Ļ": 1925,
      "Ġ2012": 1926,
      "Ġà´īàµ½à´ª": 1927,
      "Ġà´ħà´µàµ¾": 1928,
      "à´ŀà´¨": 1929,
      "à´Ńà´Ļ": 1930,
      "à´°à´£à´¯à´¤": 1931,
      "Ġà´Ĩà´«": 1932,
      "Ġà´Ĳà´İà´¸": 1933,
      "à´¶à´¯à´®": 1934,
      "à´İà´ĩà´¯": 1935,
      "Ġà´®à´°à´£à´Ļ": 1936,
      "à´¡à´¨à´¤": 1937,
      "Ġ*": 1938,
      "à´±à´¬": 1939,
      "à´·à´¤à´¯": 1940,
      "Ġà´ķà´¬": 1941,
      "Ġà´¯à´¨": 1942,
      "à´¶à´¨à´µ": 1943,
      "à´ĸà´°à´¨": 1944,
      "Ġà´ıà´ľàµ»à´¸": 1945,
      "Ġ38": 1946,
      "à´¨à´ŀ": 1947,
      "à´ķà´Łà´µ": 1948,
      "Ġà´ĩà´Łà´ķ": 1949,
      "à´³à´ķà´³": 1950,
      "àµģàµį": 1951,
      "Ġ!": 1952,
      "27": 1953,
      "à´°à´®à´£à´Ļ": 1954,
      "àµį!": 1955,
      "Ġà´ªà´´à´ķ": 1956,
      "Ġà´¤àµ¼à´ķ": 1957,
      "Ġà´Ĵà´¬": 1958,
      "à´®à´±à´¯": 1959,
      "à´¹à´¯": 1960,
      "à´°à´«": 1961,
      "à´¯à´ĺà´Ł": 1962,
      "Ġà´¨à´¬": 1963,
      "Ġ34": 1964,
      "Ġà´ªà´µ": 1965,
      "Ġà´¹à´ľ": 1966,
      "à´°à´ªà´°": 1967,
      "Ġà´ħà´µà´²": 1968,
      "à´´à´Łà´Ļ": 1969,
      "àµįâĢį(": 1970,
      "à´·à´¯à´®": 1971,
      "à´¨à´¡": 1972,
      "Ġà´µà´²à´¤": 1973,
      "Ġà´¤à´ķàµ¼à´¨": 1974,
      "à´²àµ»": 1975,
      "Ġà´ĺà´Łà´ķà´Ļ": 1976,
      "Ġ2000": 1977,
      "àµįâĢįâĢĻ": 1978,
      "à´°àµ½": 1979,
      "àµĤ,": 1980,
      "Ġà´¹à´°à´ľ": 1981,
      "à´®àµ¼": 1982,
      "à´ªà´£à´µ": 1983,
      "à´°à´¸à´ķ": 1984,
      "à´ķà´°àµ»": 1985,
      "Ġà´²à´¤": 1986,
      "--": 1987,
      "55": 1988,
      "90": 1989,
      "Ġà´ħà´µà´¸à´°à´®": 1990,
      "à´¥àµ¼": 1991,
      "à´±à´Ĺ": 1992,
      "Ġà´¸à´¯à´¨": 1993,
      "à´±à´Ł": 1994,
      "33": 1995,
      "Ġà´µà´®": 1996,
      "Ġà´ħà´°à´µ": 1997,
      "àµģ-": 1998,
      "ĠK": 1999,
      "à´¸à´µà´¤": 2000,
      "Ġà´Ĳà´¸à´ķ": 2001,
      "à´µà´°à´¨": 2002,
      "Ġ300": 2003,
      "Ġà´ħà´µà´¸à´°à´Ļ": 2004,
      "Ġà´®à´´à´ķ": 2005,
      "à´²à´ķà´¨": 2006,
      "à´°à´®à´ķ": 2007,
      "à´¯à´ªà´°": 2008,
      "ĠT": 2009,
      "à´¦à´ª": 2010,
      "Ġà´¤à´²à´µ": 2011,
      "à´¨àµ½à´ķ": 2012,
      "à´ķà´ľ": 2013,
      "Ġà´Ĺà´µà´£": 2014,
      "Ġà´µà´³àµ¼à´¤": 2015,
      "46": 2016,
      "à´³à´ļ": 2017,
      "à´¦à´¨à´®": 2018,
      "Ġà´ĭ": 2019,
      "à´¦à´°à´Ļ": 2020,
      "à´²à´Ł": 2021,
      "Ġà´«à´¸": 2022,
      "Ġà´ľà´²à´¨": 2023,
      "à´łà´¨": 2024,
      "àµĤâĢĭ": 2025,
      "à´´à´Ļ": 2026,
      "à´ªàµ¼à´ķ": 2027,
      "à´¦à´¯à´¤": 2028,
      "Ġ150": 2029,
      "Ġà´īà´Łà´®à´ķà´³": 2030,
      "Ġà´¸à´®à´Ĺ": 2031,
      "à´®àµ¼à´¦": 2032,
      "à´§à´°àµ»": 2033,
      "Ġà´ĵà´¯": 2034,
      "ol": 2035,
      "29": 2036,
      "Ġà´¹à´®": 2037,
      "Ġà´īàµ¾à´ķ": 2038,
      "Ġà´ķà´°à´¸": 2039,
      "à´Ńà´°": 2040,
      "à´ļà´µà´Ł": 2041,
      "à´°à´Ĺ": 2042,
      "à´·à´¦": 2043,
      "Ġà´ĩà´¤à´°": 2044,
      "Ġà´ķà´Łà´ª": 2045,
      "à´¸àµ»": 2046,
      "Ġà´ļà´µ": 2047,
      "à´Ĺà´¤à´¯": 2048,
      "Ġà´İàµ»à´ľ": 2049,
      "Ġ55": 2050,
      "Ġà´ªà´²à´¯": 2051,
      "Ġà´°à´ľà´¨": 2052,
      "Ġà´ľà´µ": 2053,
      "37": 2054,
      "36": 2055,
      "à´·à´®à´¤": 2056,
      "38": 2057,
      "Ġà´®à´±à´ļ": 2058,
      "Ġ65": 2059,
      "Ġà´Ĩà´ŀ": 2060,
      "àµ»à´ªà´¤": 2061,
      "à´¶à´¸": 2062,
      "àµ¾à´¸": 2063,
      "Ġà´®à´Ļ": 2064,
      "à´¦àµ¼": 2065,
      "à´¡àµ½": 2066,
      "àµį\"": 2067,
      "àµģà´ĥ": 2068,
      "il": 2069,
      "Ġà´īà´Łà´®à´¯": 2070,
      "à´¯à´Ĺ": 2071,
      "Ġs": 2072,
      "Ġà´Īà´¶": 2073,
      "àµ¾à´«": 2074,
      "à´°à´¸àµ¼à´ķ": 2075,
      "à´Ĺà´£à´¨à´¯": 2076,
      "ic": 2077,
      "à´ªà´£à´®": 2078,
      "Ġà´īà´±à´µ": 2079,
      "à´¦à´ķ": 2080,
      "à´¯à´ķà´°": 2081,
      "Ġà´®à´°à´Ļ": 2082,
      "à´ķà´¶": 2083,
      "Ġà´ħà´®à´°": 2084,
      "à´§à´¨à´¤": 2085,
      "ew": 2086,
      "à´¶à´¬": 2087,
      "à´ĸà´µ": 2088,
      "à´°à´¹à´®": 2089,
      "Ġà´īà´¸": 2090,
      "Ġà´®à´¤à´¤": 2091,
      "Ġà´ľà´¨à´¤à´¯": 2092,
      "à´Ńà´µà´µ": 2093,
      "Ġà´Ĩà´¡": 2094,
      "à´³àµ¼": 2095,
      "Ġà´ªà´µà´¨": 2096,
      "à´¥à´²à´®": 2097,
      "à´¿),": 2098,
      "Ġà´¬à´¦": 2099,
      "à´ªà´ļ": 2100,
      "Ġà´Ĩàµ¼à´Ł": 2101,
      "à´¹à´¦": 2102,
      "à´¤à´¨à´®": 2103,
      "àµĭ-": 2104,
      "Ġà´µà´¸à´¤": 2105,
      "à´µàµ¼à´·": 2106,
      "Ġà´¶à´°à´¤": 2107,
      "à´ķà´¥à´¯": 2108,
      "Ġ39": 2109,
      "à´¤à´ķà´®": 2110,
      "75": 2111,
      "à´±à´£à´®": 2112,
      "à´²à´ľ": 2113,
      "Ġà´·à´®": 2114,
      "à´İà´ķ": 2115,
      "à´Ĭ": 2116,
      "Ġà´¦à´¶à´²à´ķ": 2117,
      "à´°à´¥à´®": 2118,
      "Ġà´Ĵà´²": 2119,
      "Ġà´ªà´±à´®": 2120,
      "à´°à´ļà´°à´£": 2121,
      "à´Ĥ?": 2122,
      "à´®àµ¼à´¶à´¨": 2123,
      "Ġc": 2124,
      "à´°à´¸à´µ": 2125,
      "à´ĺà´ªà´°": 2126,
      "Ġà´ĩà´µàµ¼à´ķ": 2127,
      "Ġ1000": 2128,
      "à´°à´¤à´¤": 2129,
      "à´Ńà´®": 2130,
      "Ġà´§à´¨à´ķ": 2131,
      "Ġà´Ĭàµ¼à´ľ": 2132,
      "àµĢ.": 2133,
      "Ġ2010": 2134,
      "à´§à´ķà´®": 2135,
      "ĠD": 2136,
      "Ġà´µà´³àµ¼à´ļ": 2137,
      "Ġà´µà´²à´¯": 2138,
      "Ġp": 2139,
      "Ġ195": 2140,
      "us": 2141,
      "65": 2142,
      "à´Ńà´¨": 2143,
      "Ġà´®à´¯": 2144,
      "à´Łà´¯à´¤": 2145,
      "àµįâĢį),": 2146,
      "à´ĩà´¯": 2147,
      "à´ĺà´¨": 2148,
      "à´§à´¨à´ķ": 2149,
      "ĠB": 2150,
      "à´¡à´¬": 2151,
      "Ġà´Ĩà´®à´¸": 2152,
      "32": 2153,
      "Ġà´Ĩà´¶à´¯": 2154,
      "Ġà´ħà´£à´ķ": 2155,
      "Ġà´ªà´łà´¨à´Ļ": 2156,
      "à´ľà´¨à´ª": 2157,
      "à´ļà´Łà´ķ": 2158,
      "34": 2159,
      "Ġà´Ĳà´¶": 2160,
      "à´Ĩà´ª": 2161,
      "Ġà´Ńà´¯à´ª": 2162,
      "à´°à´µà´ļ": 2163,
      "à´ľà´ª": 2164,
      "à´Łà´¸": 2165,
      "Ġà´®à´¤à´µ": 2166,
      "à´ľà´µ": 2167,
      "Ġà´Ńà´¦": 2168,
      "à´¥à´Ļ": 2169,
      "Ġà´¸àµ¼à´Ł": 2170,
      "à´´à´Łà´ķ": 2171,
      "Ġà´®à´¹à´¤": 2172,
      "àµ¼à´²à´®": 2173,
      "à´ķà´ŀ": 2174,
      "Ġà´Ĳà´Ł": 2175,
      "Ġà´¸à´«": 2176,
      "39": 2177,
      "ĠàµĨ": 2178,
      "Ġà´§à´¨à´¸": 2179,
      "à´ļà´ķàµ¾": 2180,
      "Ġà´°à´ļ": 2181,
      "à´®à´Łà´ķ": 2182,
      "Ġà´¨à´¯à´¤à´¨": 2183,
      "Ġà´ľà´¨à´¨": 2184,
      "Ġà´ĩà´Łà´Ļ": 2185,
      "Ġà´Ĩà´µàµ¼à´¤": 2186,
      "à´²à´µà´°": 2187,
      "Ġà´ķà´Łà´®": 2188,
      "Ġà´ĵà´«à´±": 2189,
      "à´¯à´Łà´ķ": 2190,
      "à´ªà´´": 2191,
      "à´ŀà´Ł": 2192,
      "à´¶à´¨à´Ļ": 2193,
      "à´¯à´ļ": 2194,
      "Ġà´ħà´ªà´ķà´Łà´®": 2195,
      "Ġà´ħà´µàµ»": 2196,
      "Ġà´®à´°à´£à´µ": 2197,
      "Ġà´µà´¤": 2198,
      "à´¥à´¨à´¯": 2199,
      "Ġà´Ĩà´·": 2200,
      "à´Ĳà´ķ": 2201,
      "Ġà´µà´±": 2202,
      "Ġà´ĩàµ»à´¡": 2203,
      "à´ķà´³à´ŀ": 2204,
      "à´µà´°à´®à´±": 2205,
      "Ġà´ħà´ªà´°": 2206,
      "Ġà´ĩà´³à´ķ": 2207,
      "à´Ńà´µà´¨": 2208,
      "à´¯à´¸à´Ń": 2209,
      "âĢĮàµį": 2210,
      "Ġ47": 2211,
      "à´Ĳà´¸": 2212,
      "Ġà´Ĩà´¶à´¯à´Ļ": 2213,
      "Ġà´īà´£à´°": 2214,
      "Ġà´¹à´¯à´°": 2215,
      "Ġà´ľà´¯à´¨": 2216,
      "à´Ľàµ»": 2217,
      "à´°à´¹à´Ļ": 2218,
      "à´¶à´¯à´¤": 2219,
      "à´³à´³à´¤": 2220,
      "Ġà´ªà´±à´¨": 2221,
      "Ġ42": 2222,
      "Ġà´§à´¨à´¸à´¹": 2223,
      "à´¤à´°à´£à´¤": 2224,
      "Ġà´¸à´®à´¸": 2225,
      "àµ½à´ªà´¨": 2226,
      "à´Ĺàµ¼": 2227,
      "Ġà´µà´´à´ķ": 2228,
      "Ġà´®à´±à´µ": 2229,
      "àµģà´Ĥ?": 2230,
      "Ġà´Īà´¯": 2231,
      "à´ľà´¯à´ķà´°à´®": 2232,
      "Ġà´µàµ¼à´·à´®": 2233,
      "àµģ'": 2234,
      "Ġà´²à´ĺ": 2235,
      "Ġ44": 2236,
      "àµįâĢįâĢĮ": 2237,
      "Ġ400": 2238,
      "à´ļà´°à´£": 2239,
      "à´¹à´¨à´®": 2240,
      "ews": 2241,
      "à´§à´¸": 2242,
      "à´µà´¨à´ķà´³": 2243,
      "Ġ49": 2244,
      "à´²à´¨à´¤": 2245,
      "à´ªà´¦à´®": 2246,
      "Ġ46": 2247,
      "àµ»à´·àµ»": 2248,
      "à´°à´ķà´®": 2249,
      "à´µàµ¼à´¤": 2250,
      "à´±àµ¼à´¨": 2251,
      "à´¥àµ»": 2252,
      "à´¯à´®à´ªà´°à´®": 2253,
      "Ġà´¬à´°": 2254,
      "Ġà´«à´²à´Ļ": 2255,
      "à´°à´ķà´Łà´¨à´¤": 2256,
      "à´±à´¹": 2257,
      "ĠL": 2258,
      "Ġà´¶à´²": 2259,
      "à´°à´³à´¯à´¤": 2260,
      "à´Ĺà´¤à´µ": 2261,
      "Ġà´ķà´³à´¯": 2262,
      "à´ļà´¶": 2263,
      "Ġà´İàµ½à´¡": 2264,
      "à´µà´¯à´¸": 2265,
      "Ġà´°à´¸à´ķà´°à´®": 2266,
      "à´¤à´²à´®": 2267,
      "à´¤à´°à´®à´¨": 2268,
      "à´°à´¦àµ¼à´¶": 2269,
      "Ġâ": 2270,
      "à´¯à´¬à´¨": 2271,
      "à´¯à´¸à´®": 2272,
      "à´µà´ľà´¨": 2273,
      "àµį....": 2274,
      "à´·à´®à´®": 2275,
      "Ġà´ľà´¯à´²": 2276,
      "ed": 2277,
      "Ġ2009": 2278,
      "Ġà´¡à´¯": 2279,
      "ĠH": 2280,
      "Ġà´µà´°à´£": 2281,
      "à´łà´¤": 2282,
      "Ġà´Ĵà´¡": 2283,
      "it": 2284,
      "à´¡àµ»": 2285,
      "Ġà´¤à´ķàµ¼à´¤": 2286,
      "à´Ĺà´¡": 2287,
      "à´®à´¹": 2288,
      "à´¾...": 2289,
      "à´±à´ķà´³": 2290,
      "à´¬à´¶": 2291,
      "Ġ2008": 2292,
      "à´Ĺà´µà´¤": 2293,
      "à´·à´£à´ķ": 2294,
      "à´Ĭà´¦": 2295,
      "àµ¼à´²": 2296,
      "200": 2297,
      "Ġà´ĺà´Łà´¨": 2298,
      "Ġà´±à´¬": 2299,
      "Ġà´Ĩà´¨à´¯": 2300,
      "à´°à´ªà´°à´®": 2301,
      "ĠF": 2302,
      "à´¨à´Ĺà´°": 2303,
      "à´«à´¨": 2304,
      "à´ŀà´µà´°": 2305,
      "à´§à´µà´¨": 2306,
      "un": 2307,
      "Ġà´®à´ķàµ¾": 2308,
      "à´ľà´¯à´°": 2309,
      "Ġà´ķàµºà´µ": 2310,
      "Ġ64": 2311,
      "à´²àµ¼à´¤": 2312,
      "ac": 2313,
      "àµ»à´Ł": 2314,
      "à´¨à´µà´¯": 2315,
      "à´ĺà´µà´¨": 2316,
      "31": 2317,
      "à´ľàµ¼": 2318,
      "à´°à´ķà´Łà´®": 2319,
      "à´·à´£à´¸": 2320,
      "ĠÂ": 2321,
      "à´Ĩà´±": 2322,
      "à´¹à´ķ": 2323,
      "Ġà´ľà´¯à´²à´³": 2324,
      "Ġà´ļàµ¼à´®": 2325,
      "Ġà´ªà´ķà´²": 2326,
      "Ġà´ªà´£à´µ": 2327,
      "à´´à´ļ": 2328,
      "Ġb": 2329,
      "Ġà´ħà´ªà´ķà´Łà´Ļ": 2330,
      "à´ķà´µà´°": 2331,
      "àµ½à´±": 2332,
      "à´µàµ¼à´Ĺ": 2333,
      "tion": 2334,
      "Ġà´Ĳà´¡": 2335,
      "Ġà´Ńà´°à´£à´ĺà´Łà´¨à´¯": 2336,
      "44": 2337,
      "à´²à´¯à´¨": 2338,
      "à´ľà´¨à´¤": 2339,
      "à´¤àµ¼à´ª": 2340,
      "Ġ56": 2341,
      "Ġà´®à´£à´²": 2342,
      "Ġà´Ńà´¯": 2343,
      "Ġà´¦à´¤": 2344,
      "Ġà´µà´ķà´Ń": 2345,
      "à´ļà´¯à´®": 2346,
      "ur": 2347,
      "ĠĠĠ": 2348,
      "àµĨàµĨ": 2349,
      "à´Ļà´¯": 2350,
      "Ġà´ħà´ķà´±": 2351,
      "à´¨à´µà´¨": 2352,
      "Ġà´¨à´¯à´Ļ": 2353,
      "à´²àµ¼à´ļ": 2354,
      "à´Ĥ),": 2355,
      "Ġà´ĵà´±à´ŀ": 2356,
      "77": 2357,
      "à´£à´¸": 2358,
      "à´Łàµº": 2359,
      "ue": 2360,
      "à´µà´°à´®": 2361,
      "à´ħà´²": 2362,
      "àµģà´Ĥ:": 2363,
      "à´ĸà´ķàµ¾": 2364,
      "Ġà´¤à´²à´ļ": 2365,
      "à´Ĥ!": 2366,
      "Ġà´Ķà´·": 2367,
      "Ġà´¤à´³à´°": 2368,
      "Ġà´®à´±à´¯": 2369,
      "âĢĺ": 2370,
      "Ġà´¸à´Ĭà´¦": 2371,
      "Ġà´ļà´°à´ķ": 2372,
      "Ġà´ªà´±à´ķ": 2373,
      "à´¶à´²": 2374,
      "Ġà´Īà´ľ": 2375,
      "àµģà´Ĥ'": 2376,
      "à´µà´²à´ª": 2377,
      "à´ľà´¶": 2378,
      "ĠG": 2379,
      "à´°à´®à´µ": 2380,
      "à´§à´ķàµ¼": 2381,
      "à´¨à´¯à´¤": 2382,
      "Ġà´ĩà´³": 2383,
      "500": 2384,
      "à´®à´¸à´®": 2385,
      "à´¤à´¡": 2386,
      "à´ĸà´ķà´¨": 2387,
      "Ġà´ľàµ¼à´®": 2388,
      "ay": 2389,
      "à´¯àµº": 2390,
      "Ġ43": 2391,
      "à´ľà´¯à´ķ": 2392,
      "à´Ĺà´²à´ķ": 2393,
      "Ġà´²à´ĸ": 2394,
      "Ġà´ļà´®": 2395,
      "85": 2396,
      "Ġà´¤à´²à´µà´¨": 2397,
      "Ġ41": 2398,
      "à´¹à´°à´£à´¤": 2399,
      "à´·à´ķàµ¾": 2400,
      "à´°à´µà´®": 2401,
      "àµ»à´µ": 2402,
      "Ġà´Ĺà´µàµ¼à´£": 2403,
      "Ġ&": 2404,
      "Ġà´¤à´ª": 2405,
      "à´¤à´¤à´¯": 2406,
      "Ġà´Ĩà´ķàµ¼à´·": 2407,
      "Ġ250": 2408,
      "ĠV": 2409,
      "à´¤à´¸à´®": 2410,
      "Ġà´µà´§à´ķ": 2411,
      "à´¶àµ»": 2412,
      "42": 2413,
      "à´¦àµ»": 2414,
      "Ġà´ĩà´Łà´¨": 2415,
      "de": 2416,
      "à´«à´±à´¨": 2417,
      "Ġà´ĩà´¡": 2418,
      "Ġà´²à´¯": 2419,
      "à´ķàµ»à´¡": 2420,
      "à´·à´£à´±": 2421,
      "à´¶à´¯à´Ļ": 2422,
      "à´¤à´ķà´¯": 2423,
      "à´·à´ķàµ¼": 2424,
      "god": 2425,
      "Ġre": 2426,
      "à´ªà´¨à´µ": 2427,
      "asar": 2428,
      "Ġà´±à´µ": 2429,
      "Ġà´¬à´Ł": 2430,
      "à´ªà´ŀ": 2431,
      "à´°à´®à´£à´®": 2432,
      "à´ļà´µà´Łà´ķ": 2433,
      "Ġà´¬à´¤": 2434,
      "à´¤àµ¼à´ķ": 2435,
      "àµ½à´ªà´°": 2436,
      "Ġà´ķà´°à´Ł": 2437,
      "Ġà´Ńà´¯à´¨": 2438,
      "à´¿..": 2439,
      "à´ľà´Ĺ": 2440,
      "à´¹à´¤à´¯": 2441,
      "Ġt": 2442,
      "à´¤à´«": 2443,
      "à´®à´ķàµ¾": 2444,
      "95": 2445,
      "à´¹à´¨à´¨": 2446,
      "Ġà´ĸà´²": 2447,
      "Ġà´«à´¹à´¦": 2448,
      "78": 2449,
      "ĠO": 2450,
      "à´¶à´¨à´·": 2451,
      "Ġà´ķàµ¼à´·à´ķà´°": 2452,
      "Ġà´¨àµ½à´ķà´£à´®": 2453,
      "Ġà´·à´Ł": 2454,
      "àµĥà´Ĥ": 2455,
      "à´ªà´ķà´²": 2456,
      "Ġà´Ĩà´ļà´°": 2457,
      "tt": 2458,
      "à´®à´Ĺ": 2459,
      "68": 2460,
      "Ġà´Ĩà´´à´¤": 2461,
      "à´³à´µà´¯": 2462,
      "Ġà´ĭà´·": 2463,
      "à´°à´¹à´¤": 2464,
      "à´²à´Ĺ": 2465,
      "à´¯à´¨à´ķ": 2466,
      "à´¯à´ªà´°à´®": 2467,
      "kasar": 2468,
      "Ġà´ĩà´¨à´Ļ": 2469,
      "Ġà´«à´¯à´°": 2470,
      "Ġ2006": 2471,
      "à´¤à´®à´¨": 2472,
      "à´¬à´¦": 2473,
      "Ġà´¸à´¹à´ķà´°à´£à´¤": 2474,
      "godvartha": 2475,
      "à´¤à´µà´£à´¯": 2476,
      "à´İàµ½à´İ": 2477,
      "à´±à´µà´°": 2478,
      "àµĪ,": 2479,
      "Ġà´ħà´Ĺà´¸": 2480,
      "Ġà´ľà´²à´¸": 2481,
      "Ġà´¤à´²à´ª": 2482,
      "Ġà´Ĩà´¶à´¯à´µ": 2483,
      "Ġà´īà´¯à´°à´¤": 2484,
      "Ġà´®à´°à´¤": 2485,
      "àµ»à´¸àµ¼": 2486,
      "Ġà´ªà´°à´¤": 2487,
      "Ġà´¨à´®à´¸": 2488,
      "à´¤à´ķàµ¼à´ķ": 2489,
      "Ġ85": 2490,
      "ch": 2491,
      "à´°à´ķà´Łà´¨à´®": 2492,
      "kasargodvartha": 2493,
      "Ġà´ıà´µà´°": 2494,
      "Ġà´īà´·": 2495,
      "ĠE": 2496,
      "alay": 2497,
      "Ġà´Ĳà´İ": 2498,
      "Ġà´µà´ķà´¯": 2499,
      "Ġà´ªà´´à´Ļ": 2500,
      "Ġà´ķà´Ļ": 2501,
      "àµĭ...": 2502,
      "Ġ52": 2503,
      "Ġà´ªà´ª": 2504,
      "à´®à´¨à´¸": 2505,
      "àµįâĢĭ,": 2506,
      "à´¶à´ķà´²": 2507,
      "àµºà´®": 2508,
      "el": 2509,
      "Ġf": 2510,
      "à´¨à´ļ": 2511,
      "à´Łà´¶": 2512,
      "Ġà´ĵàµ¼à´¤": 2513,
      "Ġo": 2514,
      "Ġ58": 2515,
      "Ġà´µà´°à´ļ": 2516,
      "Ġà´¤à´ķàµ¼à´ķ": 2517,
      "Ġà´ªà´£à´¤": 2518,
      "Ġà´ħà´ľà´¯": 2519,
      "Ġà´ªà´²à´µ": 2520,
      "à´²à´Łà´ķ": 2521,
      "à´¹à´°à´£à´®": 2522,
      "àµģâĢĻ": 2523,
      "Ġà´ĩàµ»à´«": 2524,
      "à´ļà´¨à´¤": 2525,
      "66": 2526,
      "Ġà´ĩà´Łà´µà´ķ": 2527,
      "Ġà´Ĺàµ¾à´«": 2528,
      "Ġà´¬à´±": 2529,
      "à´µà´¸à´¨": 2530,
      "à´£àµ½": 2531,
      "àµĩ...": 2532,
      "Ġ51": 2533,
      "à´·à´¤à´ķà´³": 2534,
      "Ġà´Ńà´Ł": 2535,
      "Ġà´µà´¶à´¤": 2536,
      "Ġà´ħà´¯à´¯": 2537,
      "ĠJ": 2538,
      "à´¾âĢĭâĢĭâĢĭ": 2539,
      "à´³à´£": 2540,
      "Ġà´¨à´ľ": 2541,
      "à´ļàµ»": 2542,
      "à´«à´±": 2543,
      "à´Łà´ķà´Ļ": 2544,
      "à´¯à´¸à´¨": 2545,
      "à´ħà´¦": 2546,
      "Ġà´Ĵàµ»à´ªà´¤": 2547,
      "Ġ2007": 2548,
      "à´ĵà´³": 2549,
      "Ġà´Ńà´°à´£à´¸à´®": 2550,
      "Ġà´ķà´³à´¤": 2551,
      "àµįâĢįâĢĭ": 2552,
      "Ġà´ľà´Ļ": 2553,
      "à´¹à´±": 2554,
      "à´§à´¤à´¯": 2555,
      "05": 2556,
      "à´°à´·à´±à´°": 2557,
      "à´ļà´ķà´¨": 2558,
      "Ġà´§à´µ": 2559,
      "àµĨà´¿": 2560,
      "à´¨à´Łà´ķ": 2561,
      "à´®à´¤à´²à´ª": 2562,
      "à´²à´ķàµ¾": 2563,
      "à´µà´³à´Ļ": 2564,
      "à´¯à´²à´ķ": 2565,
      "à´Ļàµ½": 2566,
      "à´¸à´°à´µ": 2567,
      "à´ŀà´°": 2568,
      "Ġ5000": 2569,
      "àµį/": 2570,
      "Ġà´¸à´®à´°à´Ļ": 2571,
      "Ġà´ķà´³à´ŀ": 2572,
      "à´¾âĢį": 2573,
      "à´³à´Łà´ķ": 2574,
      "à´·à´¨à´²": 2575,
      "à´ĺàµ¼": 2576,
      "Ġà´·à´¹": 2577,
      "Ġà´ªà´±à´¯à´ª": 2578,
      "98": 2579,
      "ul": 2580,
      "à´µà´ŀ": 2581,
      "à´¦à´¸à´ŀ": 2582,
      "43": 2583,
      "à´°à´¥": 2584,
      "à´¯à´ŀ": 2585,
      "à´¬à´£": 2586,
      "à´ķà´³à´Łà´ķ": 2587,
      "à´İà´ª": 2588,
      "Ġà´µà´·": 2589,
      "à´§à´µà´¤": 2590,
      "Ġà´¬à´ļ": 2591,
      "à´ªà´ķà´Łà´¤": 2592,
      "Ġà´ħà´ľà´£": 2593,
      "Ġ57": 2594,
      "Ġà´Łà´£": 2595,
      "à´¨à´Ń": 2596,
      "Ġà´ħà´²à´°": 2597,
      "à´ªà´²à´¤": 2598,
      "67": 2599,
      "à´¿âĢĭâĢĭàµĨ": 2600,
      "à´µà´°à´¯": 2601,
      "Ġà´ħà´¸à´®": 2602,
      "à´«à´²à´®": 2603,
      "Ġà´ļà´²à´ŀ": 2604,
      "à´²àµ»à´¡": 2605,
      "àµģà´ĤâĢĻ": 2606,
      "Ġà´ħà´ªà´ķà´Łà´ķà´°à´®": 2607,
      "à´ħà´ª": 2608,
      "à´¨à´¤à´¯": 2609,
      "à´¯à´ķà´ķ": 2610,
      "à´°à´¸à´¨": 2611,
      "Ġà´µà´³àµ¼à´¨": 2612,
      "à´¦à´³": 2613,
      "à´¨à´Łà´¨": 2614,
      "à´¦à´±": 2615,
      "à´¸à´®à´¯à´¤": 2616,
      "à´¯à´¬": 2617,
      "Ġ72": 2618,
      "Ġà´®à´°à´µ": 2619,
      "à´¯à´®à´®": 2620,
      "alam": 2621,
      "àµĨ?": 2622,
      "à´¤à´¯à´ļ": 2623,
      "41": 2624,
      "à´¯à´¸à´Ńà´¯": 2625,
      "à´ķà´¯à´²": 2626,
      "ik": 2627,
      "Ġà´ķàµ¼à´¶à´¨": 2628,
      "à´ĵà´Ł": 2629,
      "Ġà´µà´·à´³": 2630,
      "Ġà´İàµ»à´¡": 2631,
      "à´°à´µà´¤": 2632,
      "àµģ!": 2633,
      "Ġ120": 2634,
      "Ġà´ķà´«": 2635,
      "à´¹à´°à´£": 2636,
      "Ġà´ħà´µà´¯à´µ": 2637,
      "Ġà´¸àµ¼": 2638,
      "àµ¼à´Ĺà´¨": 2639,
      "Ġà´ĵàµ¼à´ķ": 2640,
      "Ġà´¸à´¦à´¸": 2641,
      "Ġà´ªà´²à´¤à´µà´£": 2642,
      "à´¦à´°àµ»": 2643,
      "Ġà´¦à´¯": 2644,
      "Ġà´°à´ĺ": 2645,
      "à´ĺà´ķ": 2646,
      "à´¡à´¸": 2647,
      "à´¶à´ķà´°": 2648,
      "Ġà´ķàµºà´Ł": 2649,
      "Ġà´®à´°à´£à´¸": 2650,
      "à´¶à´¤à´®": 2651,
      "à´·àµ»à´¸": 2652,
      "à´·à´²": 2653,
      "àµĨ:": 2654,
      "Ġà´ĩàµ»à´·": 2655,
      "à´µà´¶à´®": 2656,
      "à´Ĥ..": 2657,
      "Ġà´µà´°à´¨": 2658,
      "and": 2659,
      "ro": 2660,
      "à´¨à´ªà´°à´®": 2661,
      "à´ķà´ķàµ¾": 2662,
      "Ġà´ķà´°à´ŀ": 2663,
      "Ġà´ķà´²à´°": 2664,
      "Ġà´®à´°à´£à´®à´Ł": 2665,
      "dia": 2666,
      "Ġà´Ĭà´¨": 2667,
      "Ġ59": 2668,
      "Ġà´Ĩà´£à´µ": 2669,
      "à´§àµ¼": 2670,
      "ont": 2671,
      "à´¸àµ»à´¸": 2672,
      "Ġà´®à´°à´£à´®à´Łà´ŀ": 2673,
      "Ġà´ħàµ¼à´¤": 2674,
      "ĠNews": 2675,
      "à´¯à´®à´¨à´Łà´ªà´Ł": 2676,
      "àµ»à´¨": 2677,
      "à´Łà´®à´ķà´³": 2678,
      "à´¡à´®": 2679,
      "à´¨à´¡à´¯": 2680,
      "à´ĸà´¨à´¤": 2681,
      "Ġà´ħàµ¼à´ľ": 2682,
      "Ġà´īà´ªà´ľ": 2683,
      "Ġà´ķàµºà´¸": 2684,
      "Ġà´¨à´Ĺà´°à´®": 2685,
      "àµįâĢĿ": 2686,
      "Ġà´±à´¯à´²": 2687,
      "Ġ67": 2688,
      "Ġà´ķà´±à´¨": 2689,
      "Ġà´ħà´³": 2690,
      "Ġà´µà´Łà´ķà´°": 2691,
      "Ġà´«à´°": 2692,
      "à´¨à´°à´§": 2693,
      "à´ķà´µà´²": 2694,
      "alayalam": 2695,
      "Ġà´ħà´ªà´²à´ª": 2696,
      "Ġà´¸à´¯àµ»à´¸": 2697,
      "em": 2698,
      "Ġà´Ĳà´«": 2699,
      "à´°à´¡": 2700,
      "Ġà´¨à´±": 2701,
      "à´ªà´µà´¤": 2702,
      "Ġà´¶à´°à´£": 2703,
      "à´ĤâĢĮ": 2704,
      "Ġ68": 2705,
      "Ġ95": 2706,
      "69": 2707,
      "Ùİ": 2708,
      "àµģ?": 2709,
      "à´ĺà´¨à´®": 2710,
      "à´¤à´±à´¯": 2711,
      "Ġà´ľà´¯à´¸": 2712,
      "à´ĸàµ¼": 2713,
      "à´ľà´¤": 2714,
      "Ġà´ħà´¬à´¦": 2715,
      "à´Ńà´ľ": 2716,
      "à´«à´²à´Ļ": 2717,
      "Ġ54": 2718,
      "ra": 2719,
      "ĪĻ": 2720,
      "Ġà´ħà´®à´²": 2721,
      "à´®à´±à´ķà´³": 2722,
      "à´ļà´Łà´Ļ": 2723,
      "Ġà´ħàµ½à´ª": 2724,
      "Ġà´¸à´®à´°à´ķ": 2725,
      "Ġà´ĩà´¨à´¤": 2726,
      "à´ªà´¤à´¯": 2727,
      "àµ¼à´¶à´¨à´®": 2728,
      "à´µà´ľ": 2729,
      "à´°à´ķà´Łà´¨à´Ļ": 2730,
      "à´®à´ķà´®": 2731,
      "Ġ2004": 2732,
      "Ġà´ħà´ķà´®": 2733,
      "Ġà´ľà´²à´µ": 2734,
      "08": 2735,
      "à´Ĩà´¦": 2736,
      "Ġ99": 2737,
      "à´¥à´ķ": 2738,
      "Ġà´Ńà´°à´¤": 2739,
      "à´ªà´¨à´ķ": 2740,
      "à´¸àµ¼à´µ": 2741,
      "à´·à´±": 2742,
      "Ġà´±à´ľ": 2743,
      "Ġà´¸à´®à´¯à´Ļ": 2744,
      "àµ¼à´¹": 2745,
      "àµģà´Ĥ..": 2746,
      "Ġà´²à´Ļ": 2747,
      "Ġà´°à´ļà´¨": 2748,
      "Ġà´µà´¸à´¨": 2749,
      "Ġà´¨à´Ĺà´±": 2750,
      "à´Ĺà´®à´®": 2751,
      "à´¿àµĨ": 2752,
      "à´Ĺà´¶": 2753,
      "à´ªà´°à´ª": 2754,
      "àµ»à´ķà´°": 2755,
      "Ġà´¹à´¸à´¨": 2756,
      "àµ¼à´«": 2757,
      "Ġà´ĸà´¨": 2758,
      "à´¤à´°à´Ļ": 2759,
      "Ġà´§àµ¼à´®": 2760,
      "Ġ53": 2761,
      "à´¿!": 2762,
      "àµ½à´¬": 2763,
      "Ġà´¸à´®à´¯à´µ": 2764,
      "Ġà´ħà´µà´¸à´°à´¤": 2765,
      "à´Ĵà´¯": 2766,
      "Ġ`": 2767,
      "Ġà´®à´°à´£à´®": 2768,
      "à´Ĺà´¦": 2769,
      "Ġà´ĵà´µà´°": 2770,
      "à´¯à´¨à´¯": 2771,
      "à´ªà´¶": 2772,
      "Ġà´īà´Łà´²": 2773,
      "Ġa": 2774,
      "à´ħà´¬": 2775,
      "os": 2776,
      "à´µà´Ĺ": 2777,
      "Ġà´ħà´°à´ķ": 2778,
      "Ġà´Ľà´¤": 2779,
      "et": 2780,
      "09": 2781,
      "à´¨à´ķà´³": 2782,
      "07": 2783,
      "2020": 2784,
      "Ġà´Ńà´Ĺà´µ": 2785,
      "Ġà´ĩà´°à´ķà´³": 2786,
      "à´°à´¯à´¤": 2787,
      "Ġà´Ĺà´µàµ¼à´£àµ¼": 2788,
      "àµĬâĢĭ": 2789,
      "à´¹à´ª": 2790,
      "Ġà´Ĺà´¸": 2791,
      "à´Ĳà´Ł": 2792,
      "Ġ66": 2793,
      "Ġà´ĩà´Łà´®": 2794,
      "Ġà´īà´ªà´®": 2795,
      "Ġà´·à´°": 2796,
      "à´Ńà´ľà´¨": 2797,
      "à´¸à´³": 2798,
      "àµĨ;": 2799,
      "Ġà´¬à´ľ": 2800,
      "Ġ2005": 2801,
      "à´Ńà´µà´¸": 2802,
      "ps": 2803,
      "Ġà´µàµº": 2804,
      "à´«à´¯": 2805,
      "Ġà´Ĩàµ¾à´ķ": 2806,
      "Ġh": 2807,
      "Ġà´¹à´¯àµ¼": 2808,
      "àµĢà´Ĥ,": 2809,
      "58": 2810,
      "à´®à´¸à´ķ": 2811,
      "Ġà´µà´¨à´¤": 2812,
      "Ġà´ľà´¯à´±": 2813,
      "à´¹à´¬": 2814,
      "à´ķà´Łà´¯": 2815,
      "à´±à´´": 2816,
      "à´°à´µà´£à´¤": 2817,
      "à´®à´¬": 2818,
      "à´°à´¹à´£": 2819,
      "à´¤à´¬": 2820,
      "ĠÂ»": 2821,
      "à´¦àµ¼à´¶à´¨": 2822,
      "à´·à´ķà´°à´®": 2823,
      "erala": 2824,
      "à´ļà´Ļ": 2825,
      "à´°à´ķà´¨": 2826,
      "Ġà´®à´²à´®": 2827,
      "Ġà´ķàµ¼à´®": 2828,
      "Ġà´®à´¤à´¸": 2829,
      "Ġà´īà´£à´ķ": 2830,
      "à´¤à´¨à´µ": 2831,
      "à´Łà´£à´¤": 2832,
      "06": 2833,
      "à´®à´Ń": 2834,
      "à´£à´¦": 2835,
      "àµģ....": 2836,
      "à´²à´ŀ": 2837,
      "Ġà´ħà´¤à´¤": 2838,
      "à´ķà´®à´£": 2839,
      "à´¬àµ½": 2840,
      "Ġin": 2841,
      "à´µàµ¼à´£à´ķ": 2842,
      "à´²à´¡": 2843,
      "Ġà´ªà´ķàµ¼à´¤": 2844,
      "Ġà´ķà´µà´±": 2845,
      "à´ķà´²à´¯": 2846,
      "Ġ600": 2847,
      "àµºà´«": 2848,
      "Ġn": 2849,
      "à´łà´®": 2850,
      "à´ŀà´®": 2851,
      "à´ļà´ļ": 2852,
      "88": 2853,
      "àµĨ'": 2854,
      "//": 2855,
      "à´¡à´¡": 2856,
      "à´¤à´ķàµ»": 2857,
      "Ġà´ķàµ¼à´¶à´¨à´®": 2858,
      "Ġà´¹à´£": 2859,
      "56": 2860,
      "àµ¼à´ªà´±": 2861,
      "ĠMalayalam": 2862,
      "ĠW": 2863,
      "Ġà´Ĩà´¶à´¯à´ķ": 2864,
      "Ġà´īà´ªà´Ĺ": 2865,
      "Ġà´ĵàµ¼à´¡": 2866,
      "Ġread": 2867,
      "ent": 2868,
      "Ġà´ķà´³à´®à´¶": 2869,
      "à´ŀà´³": 2870,
      "Ġà´¤à´ļ": 2871,
      "à´£à´Ń": 2872,
      "Ġ+": 2873,
      "à´°à´µà´ļà´¨": 2874,
      "Ġà´ªà´±à´¤": 2875,
      "Ġà´Ĩà´Ńà´°à´£à´Ļ": 2876,
      "Ġà´±à´¯": 2877,
      "à´¸à´ķàµ¾": 2878,
      "Ġà´ħà´Łà´ŀ": 2879,
      "Ġà´²à´¡": 2880,
      "79": 2881,
      "à´¿âĢį": 2882,
      "Ġà´¤à´Łà´¸à´ª": 2883,
      "à´¾-": 2884,
      "à´µà´¯à´²": 2885,
      "Ġà´®à´łà´¤": 2886,
      "Ġà´Ĺà´¡": 2887,
      "à´¤à´µà´£à´¤": 2888,
      "ĠRe": 2889,
      "à´¤à´ľ": 2890,
      "Ġà´¬à´¹à´³": 2891,
      "://": 2892,
      "à´ªà´²à´ª": 2893,
      "Ġà´«à´²à´¸": 2894,
      "à´ļàµ½": 2895,
      "à´¯àµ¼à´ª": 2896,
      "à´¡àµ¼": 2897,
      "Ġà´²à´µ": 2898,
      "à´¹à´²": 2899,
      "vi": 2900,
      "à´¯à´µàµ¼à´ķ": 2901,
      "à´²à´®à´¤": 2902,
      "Ġà´ĩà´±à´ļ": 2903,
      "à´Ĥ\"": 2904,
      "Ġà´ķà´³à´°": 2905,
      "à´¾à´Ĥ:": 2906,
      "Ġà´Ńà´Ĺà´µà´¤": 2907,
      "à´°à´³à´®": 2908,
      "Ġà´¸àµ½à´®": 2909,
      "à´¿/": 2910,
      "àµģâĢĭâĢĭâĢĭ": 2911,
      "Ġ78": 2912,
      "Ġ69": 2913,
      "à´¿\"": 2914,
      "Ġà´Ĺà´¨": 2915,
      "Ġà´¤à´²à´Ļ": 2916,
      "à´¹à´¨à´µ": 2917,
      "à´Łà´¯à´ļ": 2918,
      "??": 2919,
      "à´µà´ķà´³": 2920,
      "Ġà´®à´¤à´¨": 2921,
      "ĠCont": 2922,
      "Ġ77": 2923,
      "à´¿âĢĭâĢĭâĢĭâĢĭ": 2924,
      "à´µà´ªà´°": 2925,
      "à´®à´¡": 2926,
      "Ġof": 2927,
      "Ġà´¨àµ½à´ķà´£": 2928,
      "à´Ĺà´¢": 2929,
      "àµģà´Ĥ!": 2930,
      "à´§à´¶": 2931,
      "Ġà´±à´®à´¦": 2932,
      "à´¯àµ»à´¸": 2933,
      "àµĨ)": 2934,
      "Ġà´ªà´µà´°": 2935,
      "57": 2936,
      "Ġà´¤à´µ": 2937,
      "à´¥àµ¼à´ķ": 2938,
      "à´Ĺà´¤à´ķ": 2939,
      "ĠĠĠĠĠĠĠĠĠĠĠĠĠĠĠĠ": 2940,
      "Ġà´ķà´²à´¯": 2941,
      "à´¬à´®": 2942,
      "Ġ2001": 2943,
      "62": 2944,
      "2021": 2945,
      "à´¯à´µà´¤": 2946,
      "à´°à´ªà´ŀ": 2947,
      "àµ¼à´£à´¯": 2948,
      "à´¸àµ¼à´Ĺ": 2949,
      "à´ľà´¯à´²à´ķ": 2950,
      "Ġà´µà´¶à´Ļ": 2951,
      "à´¦à´¨à´Ļ": 2952,
      "ph": 2953,
      "Ġà´ĩà´µà´¨": 2954,
      "à´¤à´ķà´µ": 2955,
      "Ġà´®à´°à´£à´ķ": 2956,
      "Ġà´ħà´ķà´¨": 2957,
      "Ġ62": 2958,
      "Ġà´¬à´ķ": 2959,
      "Ġà´¨à´¯à´¨": 2960,
      "inue": 2961,
      "Ġà´¸à´¹à´®à´¨": 2962,
      "Ġà´ķà´¬à´³": 2963,
      "à´¨à´ªà´¤": 2964,
      "à´ĺàµ¼à´·": 2965,
      "à´¨à´Ĺ": 2966,
      "à´«àµ¼": 2967,
      "Ġà´ķàµ¼à´·à´ķàµ¼": 2968,
      "àµģ)": 2969,
      "Ġà´¸à´ķà´²": 2970,
      "à´łà´Ļ": 2971,
      "à´®à´ļ": 2972,
      "Ġà´¶àµ¼à´®": 2973,
      "à´£à´ķà´°à´®": 2974,
      "ĠContinue": 2975,
      "Ġà´Ĩà´¨à´ķ": 2976,
      "àµĢ,": 2977,
      "Ġreading": 2978,
      "à´®àµ½": 2979,
      "àµºà´µ": 2980,
      "Ġ63": 2981,
      "à´¨à´Łà´ªà´Ł": 2982,
      "Ġw": 2983,
      "à´Ļà´£": 2984,
      "àµ¼à´µà´¤": 2985,
      "Ġà´¸à´°à´¸": 2986,
      "Ġà´ķà´°à´³": 2987,
      "àµįâĢĮ:": 2988,
      "Ġà´¬à´¡": 2989,
      "à´§à´ķà´¨": 2990,
      "à´¯àµ¼à´ķ": 2991,
      "à´µà´£à´®": 2992,
      "Ġà´¹à´¬": 2993,
      "à´«à´·à´£à´²": 2994,
      "à´²à´µà´¸": 2995,
      "à´¨à´Ĺà´±": 2996,
      "Ġà´ħàµ»": 2997,
      "63": 2998,
      "um": 2999,
      "64": 3000,
      "Ġà´ľà´¯à´ķ": 3001,
      "à´¿à´Ĥ,": 3002,
      "Ġà´¤à´±à´µ": 3003,
      "à´·à´£àµ¼": 3004,
      "ip": 3005,
      "à´¯à´Łà´¨": 3006,
      "Ġà´Ĩàµ¼à´İà´¸": 3007,
      "à´ķàµ¼à´ķ": 3008,
      "à´µà´°à´Łà´Ļ": 3009,
      "Ġà´®à´°à´Ł": 3010,
      "Ġà´İàµ»à´«": 3011,
      "Ġà´ķà´°à´ķ": 3012,
      "à´°à´·à´±": 3013,
      "Ġà´īà´£à´Ļ": 3014,
      "à´ħà´Ł": 3015,
      "à´ªà´ķà´³": 3016,
      "àµĨ(": 3017,
      "à´£à´¯à´¤": 3018,
      "Ġà´¡à´¯à´²": 3019,
      "Ġ3000": 3020,
      "Ġà´ħà´¨à´¸": 3021,
      "Ġà´ªà´°à´ķ": 3022,
      "Ġà´ĩà´³à´¯": 3023,
      "Ġ#": 3024,
      "Ġà´ªà´°à´¨": 3025,
      "à´ķàµ»à´¡à´±": 3026,
      "à´£à´¤à´¯": 3027,
      "à´¨à´®à´°": 3028,
      "Ġà´¯à´¹": 3029,
      "04": 3030,
      "à´¤à´µàµ¼à´ķ": 3031,
      "àµĨ..": 3032,
      "à´¸à´°à´®": 3033,
      "à´µàµ¼à´·à´¤": 3034,
      "à´¶à´®à´¨": 3035,
      "52": 3036,
      "01": 3037,
      "Ġà´¨à´µà´ľ": 3038,
      "à´¡à´²à´®": 3039,
      "Ġ1500": 3040,
      "à´·à´ķàµ»": 3041,
      "à´ķà´¤à´ķà´³": 3042,
      "àµįâĢį!": 3043,
      "àµ»à´¡àµ¼": 3044,
      "2017": 3045,
      "ĠX": 3046,
      "à´¡à´¨à´Ļ": 3047,
      "Ġth": 3048,
      "Ġà´ªà´Łà´ķ": 3049,
      "à´ĸà´±": 3050,
      "à´¯à´Łà´¨à´¤": 3051,
      "2019": 3052,
      "Ġ2002": 3053,
      "à´ķà´ķà´¤": 3054,
      "Ġ98": 3055,
      "à´ķà´¦": 3056,
      "Ġà´¤à´±à´¯": 3057,
      "à´Ĺà´®à´¤": 3058,
      "à´Łà´ŀ": 3059,
      "à´Ńà´ķà´°": 3060,
      "à´¶à´ķà´²à´¨": 3061,
      "àµĭ'": 3062,
      "à´ĺà´¨à´Ļ": 3063,
      "Ġà´īà´ľ": 3064,
      "Ġ800": 3065,
      "à´ĵà´°": 3066,
      "Ġà´Ķà´·à´§": 3067,
      "à´¸à´¬": 3068,
      "97": 3069,
      "Ġà´ķà´µàµ¼": 3070,
      "à´ĺà´Łà´¨à´ķàµ¾": 3071,
      "à´¯à´®à´¨à´¤": 3072,
      "à´Ĩàµ¼à´Ł": 3073,
      "Ġà´¦à´¯à´¨": 3074,
      "tic": 3075,
      "Ġà´Ĩà´¦à´°à´µ": 3076,
      "à´¿âĢĭâĢĭâĢĭàµĨ": 3077,
      "Ġà´Ńà´µ": 3078,
      "à´¯àµ¼à´¨": 3079,
      "à´£à´£": 3080,
      "03": 3081,
      "à´łà´ª": 3082,
      "à´®à´ľ": 3083,
      "Ġà´ħà´µà´¹": 3084,
      "à´ĩà´¡": 3085,
      "ter": 3086,
      "à´Łà´®à´¯": 3087,
      "à´¯àµ½à´®": 3088,
      "Ġ74": 3089,
      "à´¨à´ªà´°": 3090,
      "à´°à´ķàµ¾": 3091,
      "Ġà´Ĺà´µàµºà´®": 3092,
      "à´®à´ķà´¨": 3093,
      "à´Ĺà´²à´¤": 3094,
      "à´ľà´¯à´Ļ": 3095,
      "à´ĸà´ķ": 3096,
      "Ġà´İàµ»à´¸": 3097,
      "à´¤à´Ń": 3098,
      "Ġà´«à´²à´¤": 3099,
      "à´Į": 3100,
      "Ġà´ĩà´ĸ": 3101,
      "Ġà´¸à´®à´µ": 3102,
      "àµĭ..": 3103,
      "Ġà´¤à´¹à´¸": 3104,
      "à´®à´°à´ķ": 3105,
      "à´¦à´¸": 3106,
      "Ġà´ĩà´²à´µà´¨": 3107,
      "999": 3108,
      "Ġà´ķà´¨à´ķ": 3109,
      "Ġà´īà´ªà´ķ": 3110,
      "à´¿?": 3111,
      "Ġà´ķà´±à´Ļ": 3112,
      "à´±àµº": 3113,
      "Ġà´Ĵà´«": 3114,
      "à´£à´£à´®": 3115,
      "Ġà´¤à´£à´²": 3116,
      "...]": 3117,
      "à´Ĺà´¤à´®": 3118,
      "59": 3119,
      "Ġà´ªà´°à´ª": 3120,
      "----": 3121,
      "à´İàµ½à´İà´®": 3122,
      "ĠU": 3123,
      "72": 3124,
      "à´ªà´ķàµ½à´ª": 3125,
      "Ġ[...]": 3126,
      "ir": 3127,
      "à´§àµ»": 3128,
      "à´ħà´Ļ": 3129,
      "Ġ....": 3130,
      "Ġà´¸à´¹à´¤": 3131,
      "à´Łà´ķà´®": 3132,
      "à´ĩà´ª": 3133,
      "àµ¼à´ĺà´ķ": 3134,
      "à´µà´¨à´®": 3135,
      "à´²à´ļà´¨": 3136,
      "br": 3137,
      "à´ľà´¨à´ķà´®": 3138,
      "Ġà´¯à´¤": 3139,
      "Ġ76": 3140,
      "Ġ94": 3141,
      "ec": 3142,
      "à´ļà´¯à´¤": 3143,
      "ag": 3144,
      "ation": 3145,
      "à´¨à´®à´²": 3146,
      "Ġà´ĺà´Łà´ķà´®": 3147,
      "Ġà´ħà´¤à´²": 3148,
      "Ġ2003": 3149,
      "Ġà´Ĩàµ¾": 3150,
      "à´¾à´Ĥ;": 3151,
      "àµĨâĢĻ": 3152,
      "Ġà´ªà´±à´µ": 3153,
      "53": 3154,
      "à´¤à´µàµ¼": 3155,
      "Ġà´Ļ": 3156,
      "à´¾âĢĭâĢĭ": 3157,
      "Ġà´Ĭà´Ł": 3158,
      "àµį).": 3159,
      "à´¤à´°à´£à´µ": 3160,
      "Ġà´ħà´ķà´ª": 3161,
      "Ġà´®à´²à´Ļ": 3162,
      "à´Łà´ķà´ķ": 3163,
      "Ġà´µà´³à´ŀ": 3164,
      "Ġà´Ĩàµ¼à´¤": 3165,
      "à´¡à´¤": 3166,
      "org": 3167,
      "Ġà´¤àµ»": 3168,
      "Ġà´ħàµ¼à´ª": 3169,
      "Ġà´Īà´°": 3170,
      "ĠâĪĻ": 3171,
      "à´¯à´®à´¨à´Ļ": 3172,
      "Ġà´¸à´®à´¤": 3173,
      "à´¦à´¨à´µ": 3174,
      "à´ľà´¹": 3175,
      "ÙĦ": 3176,
      "àµ»à´Ĺ": 3177,
      "Ġ125": 3178,
      "Ġà´²à´¬": 3179,
      "Ġà´®à´¹à´²": 3180,
      "Ġ73": 3181,
      "à´°à´®à´¸à´®": 3182,
      "Ġà´®à´°à´ķ": 3183,
      "02": 3184,
      "Ġà´°à´¶": 3185,
      "à´µà´°à´£à´®": 3186,
      "à´¾à´Ĥ...": 3187,
      "à´·à´°à´¤": 3188,
      "2016": 3189,
      "à´ħà´¯": 3190,
      "à´ķà´®à´²": 3191,
      "à´Ĵà´¨": 3192,
      "Ġà´ªà´ķàµ¼à´¨": 3193,
      "Ġ97": 3194,
      "89": 3195,
      "Ġ71": 3196,
      "à´·à´£à´¶": 3197,
      "Ġà´Ĳà´±": 3198,
      "Ġà´ªà´ķà´°à´®": 3199,
      "Ġl": 3200,
      "àµĪâĢĭ": 3201,
      "Ġà´¤à´°à´£": 3202,
      "à´Łàµ¼à´ķ": 3203,
      "Ġ61": 3204,
      "ve": 3205,
      "Ġà´ıà´ķà´ªà´ķ": 3206,
      "ttps": 3207,
      "Ġà´®à´°à´£à´¨": 3208,
      "61": 3209,
      "Ġà´İà´ľ": 3210,
      "2018": 3211,
      "Ġà´īà´ªà´µ": 3212,
      "Ġàµį": 3213,
      "Ġ84": 3214,
      "Ġ2022": 3215,
      "ot": 3216,
      "Ġà´ıàµ½à´ª": 3217,
      "Ġ87": 3218,
      "àµįâĢįâĢį": 3219,
      "à´¥à´²à´µ": 3220,
      "à´¯à´£àµ»": 3221,
      "à´µà´³à´°": 3222,
      "à´ľà´¨à´®": 3223,
      "Ġà´µàµ¼à´£": 3224,
      "Ġà´ĵà´£à´¤": 3225,
      "à´Ĺà´®à´¨à´¤": 3226,
      "Ġà´ªà´Łàµ¼à´¨": 3227,
      "Ġk": 3228,
      "à´³à´³à´µà´°": 3229,
      "àµĹ:": 3230,
      "à´®à´Łà´Ļ": 3231,
      "Ġà´Ĩà´¨à´ķà´³": 3232,
      "Ġà´ħà´¸à´¹": 3233,
      "Ġà´¾": 3234,
      "à´°à´¬à´¨": 3235,
      "à´®àµº": 3236,
      "à´¨à´Łà´Ļ": 3237,
      "à´°à´ļà´°à´£à´¤": 3238,
      "ĠâĢĮ": 3239,
      "Ġ89": 3240,
      "à´·à´ķàµ¼à´ķ": 3241,
      "Ġà´ķàµ¼à´·à´ķàµ¼à´ķ": 3242,
      "54": 3243,
      "Ġà´ħà´µàµ¾à´ķ": 3244,
      "àµ»à´¸à´±": 3245,
      "à´ĸà´ķàµ»": 3246,
      "Ġà´ĵà´£à´ķ": 3247,
      "Ġ350": 3248,
      "à´¸à´£à´²": 3249,
      "à´ªà´ķà´°à´£à´Ļ": 3250,
      "à´´à´ķà´³": 3251,
      "à´°à´³à´¯à´ķ": 3252,
      "à´ĩà´Ĵ": 3253,
      "51": 3254,
      "ĠâĢį": 3255,
      "Ġà´¸à´®à´ķ": 3256,
      "Ġà´ľà´¯à´¤": 3257,
      "Ġà´Ĳà´¤": 3258,
      "à´¶à´ķà´³": 3259,
      "à´¤à´µà´¤": 3260,
      "à´®à´¤à´¤": 3261,
      "Ġ88": 3262,
      "Ġà´¬à´ŀ": 3263,
      "à´±à´Ĺà´±": 3264,
      "à´Ķ": 3265,
      "à´ĸà´¨à´Ļ": 3266,
      "à´¦à´¬": 3267,
      "Ġà´Ĩà´±à´¨": 3268,
      "à´ĩà´¬": 3269,
      "à´µàµ¼à´®": 3270,
      "à´¨à´³": 3271,
      "à´®à´¦à´²": 3272,
      "Ġà´³": 3273,
      "à´ªà´ł": 3274,
      "à´Ļà´£à´®": 3275,
      "Ġà´«à´¯àµ¼": 3276,
      "ak": 3277,
      "à´¦àµ¼à´Ń": 3278,
      "Ġà´¬à´¦à´²": 3279,
      "Ġà´ķà´´à´ķ": 3280,
      "à´³à´¤à´²à´¤": 3281,
      "àµ½à´¦": 3282,
      "Ġà´µàµ¼à´·à´µ": 3283,
      "Ġà´ªà´±à´¯à´£": 3284,
      "à´Łà´µà´¨": 3285,
      "Ġà´İà´Łà´ª": 3286,
      "Ġ96": 3287,
      "Ġà´¹à´²": 3288,
      "Ġà´®à´¤à´®": 3289,
      "à´ľà´¯à´µ": 3290,
      "à´°à´¯à´§": 3291,
      "à´§à´µà´²": 3292,
      "à´ªà´ķàµ»": 3293,
      "Ġà´®à´¤à´Ļ": 3294,
      "àµįàµįâĢĮ": 3295,
      "à´¯à´¯à´¨": 3296,
      "Ġà´¤à´Łà´¸à´®": 3297,
      "ĠâĢ¢": 3298,
      "Ġà´Ĩàµ»à´±": 3299,
      "à´ķà´³à´¤": 3300,
      "à´¸à´ľ": 3301,
      "à´¨à´¤à´ķà´³": 3302,
      "à´³à´¤à´²": 3303,
      "à´ªà´£à´°": 3304,
      "à´ľà´ķà´®à´£": 3305,
      "Ġà´ıà´¬": 3306,
      "à´·à´¨àµ½": 3307,
      "Ġà´¦à´¹à´¨": 3308,
      "Ġà´Ńà´¯à´®": 3309,
      "à´ļà´®à´°": 3310,
      "à´¯à´ķà´¤": 3311,
      "àµĨ-": 3312,
      "à´°à´µà´¸": 3313,
      "Ġà´µà´¶": 3314,
      "ri": 3315,
      "à´ķà´³à´²": 3316,
      "Ġ79": 3317,
      "à´°à´¦àµ¼à´¶à´¨": 3318,
      "87": 3319,
      "Ġà´¹à´µ": 3320,
      "àµ»à´·à´¨": 3321,
      "àµįâĢį/": 3322,
      "à´·à´¤à´ķàµ¾": 3323,
      "ut": 3324,
      "ðŁ": 3325,
      "àµ»à´¤": 3326,
      "Ġà´ĺà´Łà´¨à´¯": 3327,
      "à´¬à´°à´¤": 3328,
      "à´²à´¨à´µ": 3329,
      "à´¯à´ķàµ¾": 3330,
      "à´¯à´¦à´°": 3331,
      "Ġ86": 3332,
      "à´¨à´¬": 3333,
      "ĠIn": 3334,
      "àµĩ..": 3335,
      "à¤": 3336,
      "à´¡à´¨à´ķ": 3337,
      "à´§à´®à´¨": 3338,
      "à´ļà´°à´£à´¤": 3339,
      "ber": 3340,
      "Ġ700": 3341,
      "Ġà´ħà´²à´¯": 3342,
      "Ġà´ķà´Łà´µ": 3343,
      "ĠRead": 3344,
      "à´²à´ķà´°": 3345,
      "Ġà´¯à´ľ": 3346,
      "à´¸àµ¼à´®": 3347,
      "à´³à´¯à´Ł": 3348,
      "Ġà´Ĭà´·": 3349,
      "Ġà´Ĺà´£à´ªà´¤": 3350,
      "àµģà´Ĥ-": 3351,
      "Ġà´Ĺà´µàµ¼": 3352,
      "à´¦à´°à´®": 3353,
      "Ġà´µà´°à´¯": 3354,
      "à´®àµ¼à´¶à´¨à´Ļ": 3355,
      "àµ»à´Ĺà´£à´¨": 3356,
      "à´¯à´¤à´ķàµ¾": 3357,
      "Ġà´ħà´²à´Ł": 3358,
      "Ġà´Ĩà´¬": 3359,
      "à´ļà´ķàµ¾à´ķ": 3360,
      "Ġà´£": 3361,
      "st": 3362,
      "Ġà´«à´±": 3363,
      "à´±à´¶": 3364,
      "Ġà´®à´³": 3365,
      "à´®à´ŀ": 3366,
      "100": 3367,
      "à´¦à´¨à´ķ": 3368,
      "à´°à´£à´ª": 3369,
      "Ġ82": 3370,
      "à´ķà´³à´Ļ": 3371,
      "à´Ńà´¸": 3372,
      "Ġ1996": 3373,
      "à´¡à´±à´²": 3374,
      "Ġà´¤à´Łà´Ļ": 3375,
      "Ġà´ªà´ķà´°à´ķ": 3376,
      "Ġà´ļà´£": 3377,
      "Ġà´®à´¦à´¨": 3378,
      "ine": 3379,
      "Ġà´ħà´¸à´Ń": 3380,
      "Ġà´µà´³à´ª": 3381,
      "Ġà´Ĩà´¶à´¯à´¤": 3382,
      "à´¦àµ¼à´¶à´¨à´¤": 3383,
      "àµįâĢį..": 3384,
      "à´·à´°à´Ļ": 3385,
      "Ġà´ªà´±à´¯à´£à´®": 3386,
      "à´ħà´°": 3387,
      "76": 3388,
      "à´µà´¨à´®à´¨": 3389,
      "à´§à´¨à´®": 3390,
      "Ġ1999": 3391,
      "à´³à´Ł": 3392,
      "-à´¾": 3393,
      "Ġà´ªà´Łà´¯": 3394,
      "Ġà´ħà´ªà´ķà´Łà´ķ": 3395,
      "Ġà´µà´°à´£à´®": 3396,
      "Ġà´Ĺà´µàµ¼à´£à´±": 3397,
      "à´µà´¯à´±": 3398,
      "2015": 3399,
      "à´®àµ¼à´¶à´¨à´µ": 3400,
      "Ġà´ªà´µàµ¼": 3401,
      "àµĤ...": 3402,
      "à´İàµ½à´İà´¯": 3403,
      "àµįâĢį?": 3404,
      "Ġà´ħà´²à´¨": 3405,
      "Ġà´İà´¯àµ¼à´ª": 3406,
      "he": 3407,
      "Ġà´ĩà´«": 3408,
      "84": 3409,
      "à´¬à´²à´®": 3410,
      "Ġà´īà´¦à´¯": 3411,
      "Ġà´ľà´¨à´±": 3412,
      "Ġ110": 3413,
      "Ġ81": 3414,
      "86": 3415,
      "à´¯à´£à´²": 3416,
      "à´ķà´¥à´ķà´³": 3417,
      "Ġà´ªà´¯à´±": 3418,
      "Ġà´īàµ½à´ªà´¨": 3419,
      "Ġà´Ĳà´İà´İà´¸": 3420,
      "à´°à´ľà´¨": 3421,
      "Ġà´ĵà´®à´¨": 3422,
      "Ġà´¬à´²à´ª": 3423,
      "à´Łà´ķàµ¾": 3424,
      "Ġ83": 3425,
      "à´¨àµ¼à´¨": 3426,
      "Ġà´Ĳà´ľ": 3427,
      "Ġà´ħà´¯à´°": 3428,
      "Ġà´İà´Ĳà´¸": 3429,
      "Ġ1980": 3430,
      "àµįâĢįàµį": 3431,
      "Ġà´¤à´¨à´¤": 3432,
      "à´¨àµ»": 3433,
      "Ġà´Ńà´¯à´ķ": 3434,
      "à´¤à´ŀ": 3435,
      "à´£àµ¼": 3436,
      "à´ªà´³à´¤": 3437,
      "à´¸à´¦": 3438,
      "Ġà´¸à´®à´°à´µ": 3439,
      "à´®à´¤à´°": 3440,
      "àµģâĢĭâĢĭ": 3441,
      "à´µà´¤à´¯": 3442,
      "à´¨à´¤à´¨": 3443,
      "Ġà´µà´³à´µ": 3444,
      "Ġ1990": 3445,
      "à´¤à´ķà´°à´®": 3446,
      "àµĢ-": 3447,
      "Ġà´ķà´°à´ļ": 3448,
      "Ġà´Ĩà´²à´¤": 3449,
      "à´ªà´µà´°": 3450,
      "Ġà´¸à´®à´°à´®": 3451,
      "à´³à´¨à´Ļ": 3452,
      "Ġà´ħà´µà´¤à´°à´£": 3453,
      "à´ħà´µ": 3454,
      "à´Łà´¨à´µ": 3455,
      "à´Ĺà´¤à´¨": 3456,
      "Ġà´µà´ľ": 3457,
      "à´ªà´£à´¨": 3458,
      "à´¶à´¶": 3459,
      "Ġà´īà´ªà´ķà´°à´£": 3460,
      "Ġà´ħà´¹à´Ļ": 3461,
      "Ġà´¹àµ¼à´¤": 3462,
      "Ġà´®à´¡": 3463,
      "à´Łà´µàµ¼": 3464,
      "à´®à´°à´¶": 3465,
      "ĠØ": 3466,
      "Ġà´ıà´µ": 3467,
      "Ġà´Ĩàµºà´ķ": 3468,
      "Ġà´µà´¨à´®": 3469,
      "à´Łà´¬à´²": 3470,
      "à´ļà´ķà´®": 3471,
      "àµ¼à´®à´¯": 3472,
      "Ġ91": 3473,
      "Ġà´®à´®à´¤à´¯": 3474,
      "à´¸à´ĸ": 3475,
      "Ġà´«à´¯àµ½": 3476,
      "àµģà´Ĥ)": 3477,
      "à´ªà´°à´µ": 3478,
      "74": 3479,
      "82": 3480,
      "à´ħà´¸": 3481,
      "Ġà´ķà´°à´ķà´¯à´±": 3482,
      "Ġà´®à´´à´µ": 3483,
      "!!!": 3484,
      "à´łà´¯": 3485,
      "à´ķà´°à´ª": 3486,
      "ap": 3487,
      "Ġ140": 3488,
      "Ġà´®à´¨à´ª": 3489,
      "Ġà´ĸà´¨à´¨": 3490,
      "Ġà´ħà´Ĺà´°": 3491,
      "Ġà´Ĺà´«": 3492,
      "à´Īà´²": 3493,
      "Ġthe": 3494,
      "Ġà´īà´¯à´°à´®": 3495,
      "à´¤à´µà´¨": 3496,
      "Ġ130": 3497,
      "à´ħà´µà´°": 3498,
      "Ġà´®à´²à´¨": 3499,
      "Ġà´±à´®": 3500,
      "Ġà´¦à´¹": 3501,
      "à´°à´¦à´ķ": 3502,
      "à´ļà´°à´ķ": 3503,
      "ĠâĢĭàµĨ": 3504,
      "71": 3505,
      "à´Ĺà´°à´±": 3506,
      "à´ļà´Ńà´ķ": 3507,
      "à´²à´¯à´®": 3508,
      "ĠâĢĺâĢĺ": 3509,
      "Ġà´ķà´Łàµ½": 3510,
      "à´ķà´°à´¤": 3511,
      "àµĪ-": 3512,
      "à´Łà´ķà´µ": 3513,
      "à´°à´£à´µà´¶": 3514,
      "Ġà´Ĵà´¸": 3515,
      "à´°à´ķà´°": 3516,
      "à´£à´ŀ": 3517,
      "Ġà´ķàµ½à´ª": 3518,
      "Ġà´ħà´µà´¬": 3519,
      "à´·à´®à´¯": 3520,
      "Ġà´ľà´¯à´ļà´¨": 3521,
      "àµºà´«à´±àµ»à´¸": 3522,
      "à´µà´ķà´ķ": 3523,
      "Ġà´ħà´µà´¯à´µà´Ļ": 3524,
      "à´°à´ļà´°à´£à´Ļ": 3525,
      "Ġà´°à´ļà´¨à´¯": 3526,
      "Ġà´¤à´¬": 3527,
      "Ġà´Ŀ": 3528,
      "Ġà´®à´Ĺ": 3529,
      "à´Ńà´°à´£à´Ļ": 3530,
      "oo": 3531,
      "73": 3532,
      "à´®à´ĺà´Ł": 3533,
      "Ġà´·à´«": 3534,
      "à´ļà´ķà´µ": 3535,
      "à´¨à´¤à´¤à´²": 3536,
      "wik": 3537,
      "à´·à´®à´¤à´¯": 3538,
      "àµ»à´·": 3539,
      "Ġd": 3540,
      "Ġà´²à´ľ": 3541,
      "à´¤à´®à´®": 3542,
      "Ġà´®àµ½": 3543,
      "Ġà´·à´µ": 3544,
      "Ġ92": 3545,
      "Ġà´ħà´²à´®": 3546,
      "à´·à´Ń": 3547,
      "Ġà´ªà´²àµ¼à´ķ": 3548,
      "83": 3549,
      "à´īà´¦": 3550,
      "Ġà´ĩà´¤à´¨": 3551,
      "Ġà´ĵà´«à´°": 3552,
      "à´Ļà´³à´²": 3553,
      "Ġà´Ĩà´ķàµ¼": 3554,
      "est": 3555,
      "Ġà´ªà´²à´¤à´°": 3556,
      "à´¯à´®à´£": 3557,
      "à´ĸà´°à´¤": 3558,
      "à´ªàµº": 3559,
      "à´·à´¸": 3560,
      "Ġ1998": 3561,
      "Ġwww": 3562,
      "Ġà´®à´¤à´ªà´°à´®": 3563,
      "à´ªà´ķàµ¼": 3564,
      "96": 3565,
      "91": 3566,
      "àµģàµį.": 3567,
      "Ġà´ħà´°à´®à´£": 3568,
      "Ġà´Ĭà´¹": 3569,
      "à´ªà´®à´²": 3570,
      "à´ħà´ļ": 3571,
      "à´§à´¨à´ķàµ¾": 3572,
      "sp": 3573,
      "ore": 3574,
      "à´®àµ»à´ļ": 3575,
      "à´ĺàµ¼à´·à´¤": 3576,
      "à´µà´ľà´¨à´Ļ": 3577,
      "àµį.'": 3578,
      "à´ļà´µàµ¼": 3579,
      "Ġà´ķà´²à´£": 3580,
      "à´ļà´¨à´ķàµ¾": 3581,
      "à´µà´¦à´¨": 3582,
      "à´²à´µà´¸à´°à´Ļ": 3583,
      "Ġà´ľà´¯à´ª": 3584,
      "Ġà´īà´ªà´¹": 3585,
      "tit": 3586,
      "Ġà´¸à´µà´°": 3587,
      "Ġ370": 3588,
      "à´ĩà´¸": 3589,
      "à´ļà´¯à´ķ": 3590,
      "Ġà´¦àµ¼à´¶": 3591,
      "à´Ńà´ª": 3592,
      "à´Ĩà´ķ": 3593,
      "Ġà´Łà´ļ": 3594,
      "à´®à´¸à´¸": 3595,
      "Ġà´īà´´": 3596,
      "Ġ1991": 3597,
      "Ġà´ªà´łà´¨à´µ": 3598,
      "à´¤à´°à´ª": 3599,
      "à´¾:": 3600,
      "àµĨ!": 3601,
      "Ġàµĩ": 3602,
      "à´°à´ķà´¤": 3603,
      "à´¯à´¸à´¹": 3604,
      "à´¿.,": 3605,
      "à´ħà´ķ": 3606,
      "à´¸à´¸à´±": 3607,
      "à´ĤâĢĿ": 3608,
      "id": 3609,
      "Ġà´µàµ¼à´§à´¨à´µ": 3610,
      "Ġà´ļà´µà´±": 3611,
      "à´ĸà´ķà´°à´®": 3612,
      "à´ķàµ½à´ª": 3613,
      "à´¦à´¨à´¨": 3614,
      "à´ĩà´°": 3615,
      "Ġà´Ńà´°à´£à´ķà´ķ": 3616,
      "à´³à´µà´¨": 3617,
      "àµį.âĢĿ": 3618,
      "Ġà´ĩà´²à´ķà´³": 3619,
      "à´°à´³à´µ": 3620,
      "à´Ńà´ķà´³": 3621,
      "à´¤à´¨à´ķ": 3622,
      "Ġà´ľà´Ĺà´¤": 3623,
      "Ġà´µà´¨à´ª": 3624,
      "à´ĺà´µàµ»": 3625,
      "edia": 3626,
      "Ġà´¸à´¹à´¸": 3627,
      "àµģà´Ĥ(": 3628,
      "Ġà´µà´°à´³": 3629,
      "à´¯à´®à´°": 3630,
      "Ġà´ķà´¨à´¯": 3631,
      "à´ļà´µàµ¼à´ķ": 3632,
      "Ġà´ľà´Ĺà´¦": 3633,
      "à´°à´£à´¬": 3634,
      "92": 3635,
      "à´¿....": 3636,
      "à´·à´ķà´®": 3637,
      "à´¯à´®à´Ń": 3638,
      "]]": 3639,
      "à´²à´¦": 3640,
      "Ġà´ħà´µà´°à´µà´°": 3641,
      "à´¤à´°à´£à´ķ": 3642,
      "à´¸à´µà´¸": 3643,
      "Ġà´ľà´¨à´²": 3644,
      "à´¥à´¨à´ķà´³": 3645,
      "à´Ĥ(": 3646,
      "àµ¼à´Ĺà´Ļ": 3647,
      "à´¨à´¤à´°": 3648,
      "Ġà´Ĩà´ľ": 3649,
      "Ġà´ĩà´İ": 3650,
      "à´¯à´±à´¯": 3651,
      "Ġà´īà´®à´°": 3652,
      "';": 3653,
      "Ġ93": 3654,
      "à´¨à´Ĺàµ¼": 3655,
      "à´ķà´°à´¤à´¯": 3656,
      "à´¸à´°à´£": 3657,
      "à´Łà´µàµ¼à´ķ": 3658,
      "Ġà´ªà´Łà´¨": 3659,
      "Ġà´ĵà´µàµ¼": 3660,
      "à´£à´ķà´³": 3661,
      "à´¾..": 3662,
      "Ġ108": 3663,
      "à´°à´·à´±àµ¼": 3664,
      "Ġà´İà´Łà´ķ": 3665,
      "Ġà´®à´¤à´ªà´°": 3666,
      "à´¯à´®à´¸": 3667,
      "Ġà´Ĩàµ»": 3668,
      "àµ¾à´ļ": 3669,
      "ml": 3670,
      "Ġà´ĵàµº": 3671,
      "à´¤à´Ĺ": 3672,
      "ĠAl": 3673,
      "Ġà´ļà´ª": 3674,
      "Ġà´ĩà´ļ": 3675,
      "à´¤à´ªà´°": 3676,
      "Ġà´¬à´Ĺ": 3677,
      "Ġà´ĵàµ¾": 3678,
      "Ġà´ªà´ķàµ¼à´ļ": 3679,
      "https": 3680,
      "Ġà´ļà´²à´¨": 3681,
      "à´Ķà´Ł": 3682,
      "à´İà´Ł": 3683,
      "94": 3684,
      "Ġe": 3685,
      "à´¨àµ¼à´ľ": 3686,
      "Ġà´īà´Ĺ": 3687,
      "ig": 3688,
      "à´¸àµ¼à´ļ": 3689,
      "so": 3690,
      "à´°à´ķà´Łà´¨à´µ": 3691,
      "à´¡à´µ": 3692,
      "à´±àµ»à´±": 3693,
      "à´¯à´¤à´²": 3694,
      "Ġ180": 3695,
      "Ġà´ĺà´Łà´ķà´ķà´ķ": 3696,
      "Ġà´®à´°à´£à´¶": 3697,
      "àµģ\"": 3698,
      "à´ĸà´°àµ»": 3699,
      "àµ»à´±à´¯": 3700,
      "81": 3701,
      "à´°à´£à´ķà´³": 3702,
      "Ġ160": 3703,
      "Ġà´°à´®à´£": 3704,
      "à´Ĳà´ª": 3705,
      "Ġà´µà´³à´ļ": 3706,
      "à´²à´¯à´µ": 3707,
      "àµĪàµį": 3708,
      "à´ļà´µà´Łà´¤": 3709,
      "Ġà´ªà´²à´¸": 3710,
      "à´¸à´¬à´¤": 3711,
      "à´¨à´Łà´¯": 3712,
      "Ġà´ľà´²à´¤": 3713,
      "à´²à´¯àµ»à´¸": 3714,
      "àµįâĢĭ:": 3715,
      "Ġ128": 3716,
      "ab": 3717,
      "àµ¾à´µ": 3718,
      "Ġà´ªà´£à´¯": 3719,
      "à´ŀà´ķ": 3720,
      "à´¥à´¶": 3721,
      "Ġ1992": 3722,
      "ĠàµĨàµį": 3723,
      "Ġà´ıà´Ł": 3724,
      "àµºà´Ł": 3725,
      "Ġà´ķà´µàµ¼à´¨": 3726,
      "à´µà´¨à´µ": 3727,
      "àµ½à´Ł": 3728,
      "Ġà´ĩà´Łà´µà´ķà´¯": 3729,
      "Ġà´µà´Łà´ķà´°à´¯": 3730,
      "Ġà´īà´ªà´¨": 3731,
      "ail": 3732,
      "à´Łà´¨à´µà´§": 3733,
      "Ġà´ķà´¥à´ķàµ¾": 3734,
      "Ġà´Ńà´°à´£à´®": 3735,
      "à´¯àµ»à´·": 3736,
      "à´²à´¤à´¯": 3737,
      "à´·à´ķà´Ļ": 3738,
      "400": 3739,
      "Ġà´¸àµ¼à´ľ": 3740,
      "Ġà´®àµ¾à´Ł": 3741,
      "93": 3742,
      "im": 3743,
      "à´ķà´°à´ķ": 3744,
      "Ġà´ķà´¯à´°": 3745,
      "Ġà´ħà´°à´¯": 3746,
      "à´ĸà´°à´£": 3747,
      "à´²à´§à´¨": 3748,
      "Ġà´®à´·": 3749,
      "Ġà´ľà´¹": 3750,
      "à´ªàµ¼à´¶": 3751,
      "à´¯à´ªà´¤": 3752,
      "Ġà´¬à´²à´®": 3753,
      "Ġà´¦à´¨": 3754,
      "à´Ĳà´İà´¸": 3755,
      "à´µà´¨à´ķàµ¾": 3756,
      "Ġà´¹à´ķ": 3757,
      ",,,": 3758,
      "ub": 3759,
      "à´°à´ķà´¯": 3760,
      "Ġà´İàµ»à´Ł": 3761,
      "à´²àµ¼à´ķ": 3762,
      "Ġà´¦àµ¼à´¶à´¨": 3763,
      "à´¾à´Ĥ?": 3764,
      "à´¨à´Łà´¤": 3765,
      "Ġà´ħà´ªà´ķà´Łà´¸": 3766,
      "Ġà´¨à´Ĺà´°à´µ": 3767,
      "):": 3768,
      "Ġà´ªà´¦à´¤": 3769,
      "à´ĵà´«": 3770,
      "Ġà´ªà´´à´¯à´ķ": 3771,
      "Ġà´ħà´³à´ķ": 3772,
      "ĠCh": 3773,
      "Ġà´°à´ļà´¨à´ķà´³": 3774,
      "Ġà´ķà´µàµ¼à´ļ": 3775,
      "Ġà´īà´ªà´ķà´°": 3776,
      "Ġà´¸à´®à´¦": 3777,
      "àµģ(": 3778,
      "Ġà´ħàµ¼à´¦": 3779,
      "à´¥à´ķàµ¾": 3780,
      "à´Ĺàµº": 3781,
      "Ġà´¸à´Ńà´ķà´³": 3782,
      "âĢĻâĢĻ": 3783,
      "Ġà´µà´ĸ": 3784,
      "à´Ĺàµ½": 3785,
      "Ġà´Īà´¦": 3786,
      "à´ªà´°à´¨": 3787,
      "à´«à´¸à´°": 3788,
      "à´¿ÂŃ": 3789,
      "à´®à´¯à´¤": 3790,
      "à´±àµ¼à´®": 3791,
      "à´¢à´®": 3792,
      "à´¶à´¯à´µ": 3793,
      "Ġà´ķà´·à´£à´Ļ": 3794,
      "Ġà´ħà´²àµ¼à´Ł": 3795,
      "Ġar": 3796,
      "à´°à´¹à´µ": 3797,
      "Ġà´ĭà´¤": 3798,
      "à´Łà´°à´£à´®": 3799,
      "àµĨàµģ": 3800,
      "Ġà´ħà´°à´ļ": 3801,
      "Ġà´ħàµ¼à´¬": 3802,
      "à´Ĥ....": 3803,
      "Ġ1970": 3804,
      "àµįàµį.": 3805,
      "Ġà´ªà´£à´ª": 3806,
      "à´¦à´ķà´°": 3807,
      "ce": 3808,
      "à´¦à´¯à´¸": 3809,
      "ow": 3810,
      "à´ļà´ķà´´": 3811,
      "à´ķà´°à´¸": 3812,
      "à´¯à´¯à´¶": 3813,
      "Ġà´ªà´ķàµ¼à´ª": 3814,
      "à´ļà´µà´¯": 3815,
      "Ġà´µà´¯à´°": 3816,
      "Ġà´¸à´®à´¯à´¬à´¨": 3817,
      "Ġà´İàµ»à´Ĳà´İ": 3818,
      "âĢĭàµĩ": 3819,
      "Ġà´ķàµ¼à´¤": 3820,
      "Ġà´ħàµ»à´µàµ¼": 3821,
      "Ġà´·à´¬": 3822,
      "ĠKerala": 3823,
      "à´¨à´°à´¯": 3824,
      "Ġà´ľà´¨à´ľ": 3825,
      "Ġà´İà´Łà´¤": 3826,
      "àµ½à´ļ": 3827,
      "Ġà´ħà´¯àµ½à´µ": 3828,
      "did": 3829,
      "300": 3830,
      "title": 3831,
      "',": 3832,
      "à´ļà´¨à´ķ": 3833,
      "à´¸à´«à´²": 3834,
      "à´ªà´°à´ķà´³": 3835,
      "à´·à´¬": 3836,
      "Ġà´¯à´®": 3837,
      "Ġà´¸à´®à´¯à´ªà´°": 3838,
      "àµĨàµį": 3839,
      "Ġ[[": 3840,
      "Ġà´Ńà´°à´¤à´¨": 3841,
      "à´ķà´£à´µ": 3842,
      "ome": 3843,
      "à´¦à´¯à´®": 3844,
      "à´¶à´ľà´°": 3845,
      "à´¤à´³à´¤": 3846,
      "Ġand": 3847,
      "Ġà´Ĳà´¯": 3848,
      "àµĭà´Ĥ,": 3849,
      "Ġà´®à´±à´ŀ": 3850,
      "à´Łà´¨à´Ļ": 3851,
      "Ġà´Łàµº": 3852,
      "ĠâĢĻ": 3853,
      "Ġà´ĩà´Łà´ªà´´à´ķ": 3854,
      "àµ½à´ľ": 3855,
      "Ġà´ªà´´à´¯à´¤": 3856,
      "à´£à´Ł": 3857,
      "à´²à´¹": 3858,
      "oc": 3859,
      "Ġà´ł": 3860,
      "à´¬àµ¼à´Ĺ": 3861,
      "à´«à´£": 3862,
      "à´°à´£à´°": 3863,
      "Ġà´¨à´³": 3864,
      "à´Łà´¯à´ķ": 3865,
      "dex": 3866,
      "Ġà´ľà´²à´¦": 3867,
      "ate": 3868,
      "Ġà´ľà´¯à´¶à´Ļ": 3869,
      "Ġà´Ĩà´¯à´ª": 3870,
      "à´²à´¬à´¸": 3871,
      "Ġà´«à´¤": 3872,
      "à´µà´³à´®": 3873,
      "à´ļà´Łà´µ": 3874,
      "Ġà´µàµ¼à´¤": 3875,
      "à´ļà´²à´¨": 3876,
      "à´¤à´Łà´Ļ": 3877,
      "à´Ĩà´¯": 3878,
      "Ġà´ħà´µà´¶à´¨": 3879,
      "à´µà´³à´ª": 3880,
      "Ġà´īàµ½": 3881,
      "à´¸à´²à´°": 3882,
      "àµĭâĢĻ": 3883,
      "à´ħà´±": 3884,
      "à´²à´Łà´ļ": 3885,
      "Ġà´Ĵà´ļ": 3886,
      "Ġà´ľà´²à´ª": 3887,
      "Ġà´ĵà´±": 3888,
      "à´³àµ»": 3889,
      "à´ļà´±à´²": 3890,
      "Ġà´¤à´ķàµ¼à´ļ": 3891,
      "'.": 3892,
      "àµģâĢĿ": 3893,
      "Ġà´·à´ķ": 3894,
      "à´Łà´®à´²": 3895,
      "à´¡à´ªà´¤": 3896,
      "à´²à´¶": 3897,
      "à´¬à´¹": 3898,
      "Ġà´Ńà´°à´£à´ªà´ķ": 3899,
      "ers": 3900,
      "à´µà´ķà´°": 3901,
      "Ġà´ħà´¨à´µà´§": 3902,
      "Ġ1995": 3903,
      "Ġà´²à´«": 3904,
      "à´İà´ľ": 3905,
      "Ġà´ĵà´ĸ": 3906,
      "ipedia": 3907,
      "à´µà´µà´°": 3908,
      "Ġà´ĸà´¬à´±": 3909,
      "php": 3910,
      "à´¶à´ķà´°à´®": 3911,
      "à´µà´²à´®": 3912,
      "àµª": 3913,
      "Ġà´¸àµº": 3914,
      "Ġà´¬à´£": 3915,
      "wikipedia": 3916,
      "Ġà´ħà´¨à´¶": 3917,
      "Ġà´¨à´¯à´®": 3918,
      "à´Ńà´¦": 3919,
      "Ġà´ħà´ªà´µ": 3920,
      "Ġà´²à´§": 3921,
      "à´¤à´ķàµ¾à´ķ": 3922,
      "Ġà´¨à´¹": 3923,
      "Ġà´¯à´¶": 3924,
      "à´Ĳà´µ": 3925,
      "Ġà´¨à´Ĺàµ¼": 3926,
      "à´¨à´¤à´Łà´ķ": 3927,
      "à´ħà´§": 3928,
      "Ġà´µà´§à´Ń": 3929,
      "à´°à´®à´£à´µ": 3930,
      "à´²à´µà´¤": 3931,
      "à´Ĺà´¤à´¤": 3932,
      "à´§à´µàµ»": 3933,
      "index": 3934,
      "Ġà´īà´Ń": 3935,
      "Ġà´ļà´²à´¨à´Ļ": 3936,
      "à´¸à´µà´Ļ": 3937,
      "à´°àµº": 3938,
      "à´¥à´ª": 3939,
      "Ġà´ľà´µà´¹à´°": 3940,
      "Ġà´ľà´±": 3941,
      "Ġ1993": 3942,
      "à´°à´Łà´Ļ": 3943,
      "Ġà´Łà´µà´±": 3944,
      "à´ªà´¯à´°": 3945,
      "àµ½à´Ĺ": 3946,
      "à´«à´¸à´±": 3947,
      "à´¨à´¸à´°": 3948,
      "Ġ4000": 3949,
      "àµģâĢĭàµĩ": 3950,
      "Ġà´ķà´°à´£": 3951,
      "à´ķàµº": 3952,
      "à´¯à´¨à´¶": 3953,
      "à´¿âĢĿ": 3954,
      "àµį.âĢĻ": 3955,
      "à´µà´°à´ķ": 3956,
      "oldid": 3957,
      "à´ķà´¯à´ļ": 3958,
      "Ġà´ªà´²à´µà´Ł": 3959,
      "à´¦à´¶": 3960,
      "Ġà´¨à´µà´®": 3961,
      "à´°à´£à´¯à´µ": 3962,
      "à´¯à´µà´¶": 3963,
      "à´Ĺàµ»": 3964,
      "à´¨à´°à´¹": 3965,
      "àµģà´ĤâĢĭ": 3966,
      "Ġà´¡à´®": 3967,
      "àµĥâĢĭ": 3968,
      "Ġà´¯à´®à´¨": 3969,
      "à´ļà´²à´®": 3970,
      "à´¹àµ¼": 3971,
      "à´¹à´°à´£à´Ļ": 3972,
      "Ġà´¹à´¦": 3973,
      "à´¯à´¤à´²à´¤": 3974,
      "à´ħà´ŀ": 3975,
      "Ġà´µàµ»à´¤": 3976,
      "à´µà´¬": 3977,
      "........": 3978,
      "ug": 3979,
      "à´·à´¯à´µ": 3980,
      "à´ĺà´¨à´¤": 3981,
      "à´®à´¤à´²à´ķà´³": 3982,
      "Ġto": 3983,
      "àµ¼à´¢": 3984,
      "à´¯à´®à´±": 3985,
      "à´ļà´ķà´ķ": 3986,
      "Ġà´¬à´¬": 3987,
      "Ġà´ħà´±à´¯": 3988,
      "Ġà´ĩàµ»à´ķ": 3989,
      "Ġ=": 3990,
      "à´¯à´ķà´¤à´¯": 3991,
      "Ġà´İà´İ": 3992,
      "à´¯à´¤à´ķ": 3993,
      "Ġà´µà´ļà´¨": 3994,
      "Ġà´²à´Ĺ": 3995,
      "à´¸à´ķà´°à´®": 3996,
      "à´®à´¨à´¤": 3997,
      "à´ļà´µà´ļ": 3998,
      "à´°à´®à´°": 3999,
      "àµ¾à´®": 4000,
      "à´¨à´ķà´®": 4001,
      "à´³à´¯à´¤": 4002,
      "Ġà´īà´Łà´¨à´Ł": 4003,
      "à´²à´ķà´¤": 4004,
      "à´®à´ľà´¨": 4005,
      "à´µà´ļà´°": 4006,
      "2014": 4007,
      "à´ªà´³à´µ": 4008,
      "à´°à´¯à´²": 4009,
      "Ġà´İà´İà´¸": 4010,
      "Ġà´ľà´¯à´®": 4011,
      "à´¥à´¤à´ķà´³": 4012,
      "Ġà´¦à´¯à´µ": 4013,
      "à´ĸà´°à´Ļ": 4014,
      "âĢĭâĢĭàµĨ": 4015,
      "Ġà´Ńà´¯à´¤": 4016,
      "à´ªà´°à´¤": 4017,
      "Ġà´¨à´Łà´¯": 4018,
      "à´ħà´Ń": 4019,
      "à´°à´¸à´µà´¤": 4020,
      "Ġà´ĩàµ»à´±": 4021,
      "ary": 4022,
      "Ġà´Łà´¯à´±": 4023,
      "à´ªà´ķàµ¼à´ķ": 4024,
      "àµ¼à´µà´®": 4025,
      "à´¯à´¸à´®à´¯à´¤": 4026,
      "Ġà´¡à´µà´²à´ª": 4027,
      "à´Łà´¤à´²": 4028,
      "Ġ1200": 4029,
      "à´ªà´Ń": 4030,
      "àµģàµĨ": 4031,
      "Ġà´ĸà´£": 4032,
      "à´ķàµ¼à´®": 4033,
      "Ġà´ķà´³à´Ļ": 4034,
      "à´¯à´²à´¹à´°": 4035,
      "Ġà´ĸà´¦": 4036,
      "Ġà´Īà´®": 4037,
      "ath": 4038,
      "à´¯à´±à´ª": 4039,
      "Ġà´ĸà´ľà´¨": 4040,
      "à´İà´¡": 4041,
      "à´¸à´®à´¨": 4042,
      "à´°à´¨à´²": 4043,
      "Ġg": 4044,
      "à´«à´·à´£àµ½": 4045,
      "ĠOn": 4046,
      "à´µà´°à´£à´¤": 4047,
      "Ġà´¹à´®à´¦": 4048,
      "à´¾à´Ĥ..": 4049,
      "à´¤à´²à´ķ": 4050,
      "Ġà´¸à´¨à´²": 4051,
      "à´Ĳà´Ĩà´°": 4052,
      "à´ļà´¯à´µ": 4053,
      "à´ĩà´µ": 4054,
      "à´Łà´¬": 4055,
      "à´§à´ķàµ¼à´ķ": 4056,
      "à´¤à´µà´¯": 4057,
      "Ġà´ªà´±à´ļ": 4058,
      "à´£à´¬": 4059,
      "Ġ1997": 4060,
      "à´ļà´ķà´¤": 4061,
      "Ġ!!": 4062,
      "à´¨à´ľ": 4063,
      "Ġà´İà´®à´°": 4064,
      "Ġà´¡à´ļ": 4065,
      "à´ªà´Łà´¯": 4066,
      "à´¹à´¨àµ»": 4067,
      "àµĭ!": 4068,
      "Ġà´®à´ħ": 4069,
      "Ġà´ªà´łà´¨à´ķ": 4070,
      "Ġà´ħà´µà´¸à´°à´µ": 4071,
      "Ġà´Īà´¨": 4072,
      "Ġà´Ĩàµ½à´¬": 4073,
      "à´°à´¤à´¨": 4074,
      "Ġà´ľà´¬": 4075,
      "Ġ1994": 4076,
      "Ġà´®àµ»à´¸": 4077,
      "Ġà´¸à´®à´°à´¸à´®": 4078,
      "à´¨à´ĺà´Ł": 4079,
      "à´ķà´¸à´¨à´µ": 4080,
      "Ġà´Ĩà´²à´ŀ": 4081,
      "à´´à´®": 4082,
      "à´¸à´¨à´¤": 4083,
      "Ġà´ªà´ķàµ½": 4084,
      "à´īà´¤": 4085,
      "Ġà´¨à´°à´¸": 4086,
      "Ġà´ĩà´Ĺ": 4087,
      "àµºà´¸àµº": 4088,
      "à´µàµ¼à´£à´µ": 4089,
      "âĢĻ.": 4090,
      "Ġà´ŀà´°à´®": 4091,
      "à´łàµ»": 4092,
      "Ġà´ĩàµ»à´¡à´¸": 4093,
      "Ġà´Ĩàµ¼à´ļ": 4094,
      "Ġv": 4095,
      "à´¸à´®à´°": 4096,
      "ct": 4097,
      "à´¯à´µà´¨": 4098,
      "à´±à´¨à´¨": 4099,
      "Ġà´ªà´³à´¨": 4100,
      "à´·à´£à´ª": 4101,
      "Ġà´ĩà´¤à´°à´¸": 4102,
      "à´¤à´°à´¯": 4103,
      "Ġ1984": 4104,
      "à´ªàµ¼à´®": 4105,
      "Ġà´ªà´±à´¯à´Ł": 4106,
      "Ġà´ĵà´µ": 4107,
      "à´°à´®à´¯": 4108,
      "Ġà´ħà´¨à´²": 4109,
      "à´¹à´³": 4110,
      "à´īà´£": 4111,
      "à´²à´¤à´²": 4112,
      "à´°à´¯à´¯à´ª": 4113,
      "à´ĵà´ķ": 4114,
      "up": 4115,
      ".,": 4116,
      "à´ªà´Łà´°": 4117,
      "à´¤à´ªà´ķ": 4118,
      "à´²àµ¼à´®": 4119,
      "à´®àµ¼à´¶à´Ļ": 4120,
      "à´¦à´¯à´Ļ": 4121,
      "à´ķà´°à´®à´²": 4122,
      "à´ļà´¨à´®": 4123,
      "Ġà´ľà´¨à´®": 4124,
      "Ġà´Ĺà´²": 4125,
      "Ġà´Ńà´¯à´Ļ": 4126,
      "Ġà´¨à´¨à´ŀ": 4127,
      "à´¦à´§": 4128,
      "àµ¼à´Ĺà´®": 4129,
      "Ġà´®à´±à´¡": 4130,
      "600": 4131,
      "à´®à´´": 4132,
      "Ġà´Ĳà´İà´¨": 4133,
      "Ġ<": 4134,
      "à´¿à´ĤâĢĭ": 4135,
      "à´ĸà´ªà´¤": 4136,
      "Ġ),": 4137,
      "à´®à´£à´¨": 4138,
      "à´ľà´ķà´³": 4139,
      "div": 4140,
      "Ġà´īàµ¾": 4141,
      "à´¯à´µà´¯à´¸": 4142,
      "àµģà´ĤâĢĿ": 4143,
      "Ġà´ħàµ»à´¸": 4144,
      "Ġ%": 4145,
      "Ġà´¨à´ĸ": 4146,
      "à´ªà´¯à´±": 4147,
      "à´°à´²à´Łà´¯": 4148,
      "àµĩàµį": 4149,
      "Ġà´«à´¸à´²": 4150,
      "àµĩ!": 4151,
      "><": 4152,
      "àµ»à´¬": 4153,
      "à´ıà´¤": 4154,
      "à´Ńà´°à´£à´¤": 4155,
      "àµ»à´¡à´±": 4156,
      "Ġà´ħà´¯à´µ": 4157,
      "Ġà´Ĩàµ½": 4158,
      "à´¨à´°à´ķ": 4159,
      "Ġ450": 4160,
      "à´¾'": 4161,
      "à´¡à´ª": 4162,
      "Ġà´µà´³à´£": 4163,
      "à´°à´£à´¯à´®": 4164,
      "Ġà´µà´°à´Ł": 4165,
      "Ġ2500": 4166,
      "Ġ101": 4167,
      "Ġà´¸à´®à´¯à´ķ": 4168,
      "Ġà´ħà´Łà´ª": 4169,
      "à´°à´Ĺà´¤": 4170,
      "ous": 4171,
      ".)": 4172,
      "Ġà´ķà´Łà´ķàµ¾": 4173,
      "à´¶à´ľà´¨": 4174,
      "Ġà´µàµ¼à´§à´¨": 4175,
      "Ġ1989": 4176,
      "à´¿).": 4177,
      "à´µà´«à´²à´Ļ": 4178,
      "Ġà´ķà´²à´µ": 4179,
      "à´ķà´°à´ŀ": 4180,
      "Ġ105": 4181,
      "og": 4182,
      "à´®à´ªà´°": 4183,
      "Ġà´µà´³à´¯": 4184,
      "Ġà´ķàµ¼à´·": 4185,
      "à´ĵà´ª": 4186,
      "\",": 4187,
      "all": 4188,
      "Ġà´Łà´°": 4189,
      "Ġà´±à´¬à´°": 4190,
      "Ġà´Ĺà´£à´¤": 4191,
      "Ġà´ĵàµ¼à´Ĺà´¨": 4192,
      "à´°àµ»à´¸": 4193,
      "à´§à´ķà´®à´²": 4194,
      "Ġà´±à´Ĺ": 4195,
      "àµ¦": 4196,
      "à´¨à´¯à´¨": 4197,
      "à´¨àµ¼à´®": 4198,
      "Ġà´®à´¤à´ª": 4199,
      "à´ķà´Łà´ķà´³": 4200,
      "Ġà´īà´Ńà´¯à´ķà´ķ": 4201,
      "Ġà´¶à´°à´¦": 4202,
      "à´¯à´ªà´¦": 4203,
      "Ġà´ħà´¤à´¨": 4204,
      "à´ķà´Ń": 4205,
      "àµģ.[": 4206,
      "Ġà´īà´ķ": 4207,
      "àµģâĢĮ": 4208,
      "à´¬àµ¼à´Ł": 4209,
      "à´°à´ĺ": 4210,
      "à´·à´¨à´±": 4211,
      "Ġà´İà´¯àµ¼à´²": 4212,
      "Ġà´ħà´Łà´µ": 4213,
      "à´Ĥ).": 4214,
      "Ġ1987": 4215,
      "Ġà´ĵàµ¼à´¡àµ¼": 4216,
      "âĢĭâĢĭâĢĭàµĨ": 4217,
      "à´±à´ķà´°à´®": 4218,
      "à´Łà´¨à´ķ": 4219,
      "Ġà´ĵà´«àµ¼": 4220,
      "Ġ115": 4221,
      "Ġà´µà´µ": 4222,
      "ĠAlso": 4223,
      "à´¿.âĢĭ": 4224,
      "Ġà´¡à´¯à´°à´ķ": 4225,
      "Ġà´²à´·": 4226,
      "à´¤à´²à´µ": 4227,
      "à´¯à´µà´²": 4228,
      "à´ļà´Ń": 4229,
      "à´±à´¯à´Ł": 4230,
      "à´¦à´®à´¨": 4231,
      "Ġà´®à´£à´ķ": 4232,
      "ĠĠĠĠĠ": 4233,
      "Ġà´¨à´Łà´°": 4234,
      "àµįâĢĮ?": 4235,
      "Ġ900": 4236,
      "Ġà´«àµ¼à´£": 4237,
      "à´°à´µà´£à´¤à´¯": 4238,
      "à´ļà´¤à´²": 4239,
      "Ġ1960": 4240,
      "ort": 4241,
      "à´¹à´¶": 4242,
      "à´µà´¸à´°": 4243,
      "Ġà´ªàµ¼à´µ": 4244,
      "res": 4245,
      "à´µà´®à´²": 4246,
      "à´Ľà´®": 4247,
      "àµĤ..": 4248,
      "Ġà´«à´Į": 4249,
      "à´Ĳà´¡": 4250,
      "à´¯à´µà´¹": 4251,
      "à´°à´®à´¸": 4252,
      "Ġà´īà´¬": 4253,
      "Ġà´®à´ł": 4254,
      "à´ļà´®àµ¼à´¤": 4255,
      "à´°à´¦àµ¼à´¶à´¨à´¤": 4256,
      "Ġà´ľà´¨à´¸à´®": 4257,
      "ĠHome": 4258,
      "à´¨àµ¼à´¤": 4259,
      "Ġà´ľà´Ĺà´¨": 4260,
      "Ġà´ªà´Łà´µ": 4261,
      "à´µàµ½à´ķ": 4262,
      "à´Ńà´µà´¸à´®": 4263,
      "à´¶à´ķà´¨": 4264,
      "à´¶à´¦à´µ": 4265,
      "Ġà´¾à´Ĥ": 4266,
      "Ġà´·àµ¼à´Ł": 4267,
      "Ġà´«à´²à´µ": 4268,
      "Ġà´Īà´±": 4269,
      "à´²à´ķàµ»": 4270,
      "à´¯à´¹à´°": 4271,
      "à´Łà´°à´¯": 4272,
      "àµģ.âĢĿ": 4273,
      "Ġà´¤à´ªà´¸": 4274,
      "àµ»à´«": 4275,
      "àµ¼à´®à´¸": 4276,
      "Ġà´ħà´²à´ŀ": 4277,
      "Ġ6000": 4278,
      "à´ıà´ķà´¦": 4279,
      "Ġà´¸à´¹à´¯": 4280,
      "àµ»à´¹": 4281,
      "Ġà´Ĵà´µ": 4282,
      "à´¤à´²à´µà´¨": 4283,
      "âĢľ": 4284,
      "à´®à´¤à´®": 4285,
      "à´´àµ½": 4286,
      "Ġà´¬à´²à´¤": 4287,
      "Ġà´İà´¯àµ¼à´Ł": 4288,
      "Ġà´¥": 4289,
      "à´Łà´¨à´®": 4290,
      "à´±à´¸à´®": 4291,
      "Ġà´¨à´µà´°": 4292,
      "à´Ļà´³à´Łà´ķ": 4293,
      "àµįâĢĮâĢĭ": 4294,
      "à´°à´¸à´Ńà´¯": 4295,
      "à´Ĵà´®": 4296,
      "Ġ1971": 4297,
      "Ġà´¤à´²à´¨": 4298,
      "àµģà´Ĥ....": 4299,
      "Ġà´ħàµ¼à´ľà´¨": 4300,
      "à´¨à´¤à´µ": 4301,
      "Ġà´±à´«à´±": 4302,
      "Ġà´ªà´²à´ķ": 4303,
      "à´¡à´±àµ½": 4304,
      "à´¯à´®à´®à´¨": 4305,
      "à´ķà´Łà´ª": 4306,
      "à´Ļà´°à´¯": 4307,
      "800": 4308,
      "à´¦à´¨à´ķà´³": 4309,
      "âĢįâĢį": 4310,
      "àµįâĢĮ-": 4311,
      "à´°à´Łà´ķ": 4312,
      "Ġà´ľà´Ĺ": 4313,
      "Ø§": 4314,
      "à´®à´¤à´¨": 4315,
      "Ġà´Ľà´°": 4316,
      "à´Ńà´µà´¶": 4317,
      "à´§à´ľà´²": 4318,
      "à´£à´¯à´Ļ": 4319,
      "ish": 4320,
      "Ġà´¤àµ½à´ķ": 4321,
      "à´Ļà´³à´Łà´Ļ": 4322,
      "à´Łà´ķà´¨": 4323,
      "àµºà´ª": 4324,
      "à´²à´ķà´Ļ": 4325,
      "à´Ĺà´®à´²": 4326,
      "Ġà´ľàµ¼à´®à´¨": 4327,
      "Ġà´Ĩàµ¼à´®": 4328,
      "Ġ1977": 4329,
      "à´Łà´°à´¨": 4330,
      "Ġà´ķà´³àµ¼": 4331,
      "Ġà´Ĩà´ķàµ¼à´·à´£": 4332,
      "à´³à´¨à´µ": 4333,
      "à´£à´¶": 4334,
      "Ġà´°à´ļà´¯": 4335,
      "à´ľà´¨à´¨": 4336,
      "Ġà´ªà´µàµ»": 4337,
      "à´¶à´¯à´ķà´°à´®": 4338,
      "àµĭ;": 4339,
      "Ġà´µàµ¼à´®": 4340,
      "Ġà´Ńà´°à´£à´¸": 4341,
      "TC": 4342,
      "op": 4343,
      "Ġà´·à´±à´«": 4344,
      "Ġà´ķà´±àµ»à´¸": 4345,
      "à´¸à´°à´ª": 4346,
      "à´Ĩà´£": 4347,
      "ex": 4348,
      "nb": 4349,
      "Ġà´Ĳà´·": 4350,
      "à´ıà´±": 4351,
      "Ġ1986": 4352,
      "à´ķà´¬à´¨": 4353,
      "à´¯à´¬à´²": 4354,
      "à´¯à´±à´ķ": 4355,
      "à´Łà´ķàµ¼": 4356,
      "Ġà´ħàµ¾à´Ł": 4357,
      "àµĢà´Ĥ.": 4358,
      "à´Łà´µà´ķ": 4359,
      "Ġà´Ĩà´¢": 4360,
      "Ġà´µà´¨à´µ": 4361,
      "à´®à´°à´¤": 4362,
      "à´£à´µà´°": 4363,
      "Ġà´īà´²à´®": 4364,
      "Ġà´ķà´Łà´®à´¯": 4365,
      "à´Łà´µà´¯": 4366,
      "Ġà´¹à´ĸ": 4367,
      "à´°à´¦à´µ": 4368,
      "Ġà´ĩàµ»à´µ": 4369,
      "Ġà´¡à´¯à´®à´£": 4370,
      "à´°à´µà´Ļ": 4371,
      "Ġ01": 4372,
      "Ġà´ĩà´°à´µ": 4373,
      "à´ķà´°àµ¼": 4374,
      "à´ªà´®à´¯": 4375,
      "Ġà´¤à´³àµ¼à´¨": 4376,
      "Ġà´ħà´¸à´±": 4377,
      "Ġà´ĩà´Łà´ŀ": 4378,
      "Ġ>": 4379,
      "à´ķà´Łà´®": 4380,
      "à´®àµ»à´¸": 4381,
      "àµģ.'": 4382,
      "Ġà´ĩà´²à´¯": 4383,
      "Ġ170": 4384,
      "Ġà´§àµ¼à´£": 4385,
      "Ġà´ħà´µà´Ĺà´£à´¨": 4386,
      "à´ķà´¸à´Ń": 4387,
      "Ġà´ªà´¤à´±": 4388,
      "àµĨâĢĭâĢĭâĢĭ": 4389,
      "Ġà´ħà´µà´Ĺà´£à´¨à´¯": 4390,
      "Ġà´ķà´³à´®": 4391,
      "à´İà´¤": 4392,
      "Ġà´¬à´³": 4393,
      "à´°à´£à´Ĺà´¤": 4394,
      "Ġà´ħà´¥": 4395,
      "Ġà´ħà´¯àµ½": 4396,
      "ust": 4397,
      "à´¤àµ½à´®à´£": 4398,
      "à´¦àµ¼à´Ńà´Ļ": 4399,
      "à´Ļà´®": 4400,
      "Ġà´ĵà´ªà´±": 4401,
      "Ġ1950": 4402,
      "Ġà´ľà´´": 4403,
      "à´Ńà´ķà´°à´®": 4404,
      "Ġà´ĸà´¬à´±à´Łà´ķ": 4405,
      "Ġà´®à´²à´°": 4406,
      "à´Ńà´µàµ»": 4407,
      "Ġà´Ĳà´Ĳà´Ł": 4408,
      "à´²à´µàµ¼": 4409,
      "Ġà´ķà´²à´¹": 4410,
      "à´¹à´°à´¨": 4411,
      "Ġà´¶à´¤à´ķ": 4412,
      "nbsp": 4413,
      "à´£à´Łà´ļ": 4414,
      "à´®à´ķà´°à´£": 4415,
      "Ġà´¡à´ª": 4416,
      "Ġà´ħàµ¼à´¹": 4417,
      "àµĭ)": 4418,
      "à´°à´Ńà´°à´£": 4419,
      "à´¸à´µà´®": 4420,
      "à´Ĳà´®": 4421,
      "Ġà´ĩà´¯à´°": 4422,
      "Ġà´Īàµ¼à´ª": 4423,
      "à´ªà´³à´³": 4424,
      "ion": 4425,
      "à´Ńà´ľà´¨à´¤": 4426,
      "Ġà´ĵà´²": 4427,
      "à´ĩà´²": 4428,
      "Ġà´Ĩàµ¼à´ľ": 4429,
      "à´¦à´°à´µ": 4430,
      "à´³à´£à´®": 4431,
      "Ġà´Ĺà´¬": 4432,
      "àµ½à´ĸàµ¼": 4433,
      "à´¬àµ»": 4434,
      "à´¦à´°à´²": 4435,
      "Ġà´ķàµ½à´ķ": 4436,
      "Ġà´ķà´±à´ķ": 4437,
      "Ġà´Ĩà´ĸ": 4438,
      "à´ŀàµ»": 4439,
      "Ġà´ħàµ»à´ªà´¤": 4440,
      "à´¸à´¡": 4441,
      "à´ļà´ķà´Ļ": 4442,
      "à´ŀà´²": 4443,
      "à´¦à´ªà´°à´®": 4444,
      "à´µàµ»à´ķ": 4445,
      "àµįâĢį....": 4446,
      "à´ªà´³à´®": 4447,
      "Ġ1983": 4448,
      "âĢĻ,": 4449,
      "Ġà´µà´¯àµ¼": 4450,
      "à´ªà´ķà´Ł": 4451,
      "à´ļà´¯à´ļ": 4452,
      "Ġà´ĺà´Łà´ķà´¤": 4453,
      "à´µà´°àµ»": 4454,
      "à´¤àµ½à´ķ": 4455,
      "gov": 4456,
      "Ġà´ķà´·à´£": 4457,
      "ov": 4458,
      "ist": 4459,
      "à´µà´¹à´£": 4460,
      "Ġà´®à´²à´ķ": 4461,
      "Ġà´ħà´·à´±à´«": 4462,
      "à´·àµ½": 4463,
      "à´ķà´²à´µ": 4464,
      "ep": 4465,
      "à´ĸà´²à´ķ": 4466,
      "ĠâĢĭâĢĭ": 4467,
      "à´ªà´ķà´Łà´Ļ": 4468,
      "à´¯à´¡": 4469,
      "Ġà´ħà´²à´µ": 4470,
      "àµįâĢĮ)": 4471,
      "Ġà´ĭà´·à´Ń": 4472,
      "à´²à´ľà´¯": 4473,
      "à´²à´µà´ķ": 4474,
      "à´ĸà´ªà´Ł": 4475,
      "à´ķà´£à´¤": 4476,
      "Ġ1988": 4477,
      "Ġà´İà´İà´ª": 4478,
      "ticle": 4479,
      "àµģà´Ĥ\"": 4480,
      "à´¤à´Ĺà´¤": 4481,
      "à´±à´³": 4482,
      "à´ķà´£à´¯": 4483,
      "àµ»à´²": 4484,
      "Ġà´ªà´²à´¤à´°à´¤": 4485,
      "à´¨à´ķà´°à´®": 4486,
      "Ġà´¬à´®": 4487,
      "à´ĩà´Ł": 4488,
      "Ġ10000": 4489,
      "'-": 4490,
      "à´²à´ķà´£": 4491,
      "Ġà´¸àµ¼à´ª": 4492,
      "à´µà´¡": 4493,
      "âĢ¢": 4494,
      "à´®àµ¼à´¶à´¨à´®": 4495,
      "à´ļà´¯à´¸à´®": 4496,
      "Ġà´¤à´±à´ķ": 4497,
      "ĠMar": 4498,
      "Ġà´ķàµ¼à´¦": 4499,
      "à´·à´ķà´¯": 4500,
      "àµ»à´±à´±": 4501,
      "Ġà´Ńà´Ĺà´¤": 4502,
      "Ġà´Īà´ª": 4503,
      "Ġà´µà´§à´¤": 4504,
      "àµ¼à´¥à´¤": 4505,
      "àµ»à´¸à´¸": 4506,
      "Ġnews": 4507,
      "à´Łà´Ń": 4508,
      "à´«à´¤": 4509,
      "Ġà´Ĺà´¦": 4510,
      "Ġà´¹à´±": 4511,
      "à´³à´¶": 4512,
      "Ġà´ħà´¨à´ķ": 4513,
      "à´Ĥ/": 4514,
      "àµĩ'": 4515,
      "à´µà´Łà´Ļ": 4516,
      "ember": 4517,
      "à´¡à´«": 4518,
      "à´¾âĢĭâĢĭâĢĭâĢĭ": 4519,
      "Ġà´ªà´²à´¹": 4520,
      ".....": 4521,
      "Ġà´Ĭà´£": 4522,
      "Ġà´®àµ½à´¸à´°": 4523,
      "à´Ĺà´Ń": 4524,
      "à´İà´±à´£": 4525,
      "Ġà´®à´ĸ": 4526,
      "à´¤à´ķà´ķ": 4527,
      "Ùħ": 4528,
      "Ġà´¶à´µà´ķ": 4529,
      "Ġà´¨à´µà´¯": 4530,
      "à´ľà´¨à´¯": 4531,
      "hp": 4532,
      "Ġà´Ńà´Ĺ": 4533,
      "à´Ĩà´¶": 4534,
      "àµ»à´ľ": 4535,
      "à´ķàµ¼à´¤": 4536,
      "Ġà´Ĵà´®à´°": 4537,
      "Ġà´ħà´²à´¸": 4538,
      "à´°à´¤à´²à´¤": 4539,
      "our": 4540,
      "Ġà´µàµ»à´ķ": 4541,
      "Ġà´ħà´Łà´°": 4542,
      "Ġà´ħà´²àµ¼à´ľ": 4543,
      "à´¿.)": 4544,
      "Ġà´¶à´µà´¸": 4545,
      "à´¯à´ªà´Ł": 4546,
      "Ġà´Ĩà´³à´ª": 4547,
      "àµįâĢį).": 4548,
      "à´Ĵà´Ł": 4549,
      "à´°à´ķà´¥": 4550,
      "Ġà´ļà´°à´Ł": 4551,
      "Ġ104": 4552,
      "à´ķà´¯à´¤": 4553,
      "à´¸à´¡à´°": 4554,
      "à´Ńà´§": 4555,
      "Ġ144": 4556,
      "à´³àµ¼à´·": 4557,
      "à´¤à´²à´Ļ": 4558,
      "Ġà´Ĩà´ķàµ¼à´·à´ķà´®": 4559,
      "Ġ04": 4560,
      "Ġ1982": 4561,
      "Ġà´İà´Ĺ": 4562,
      "à´¯à´£à´¤": 4563,
      "à´ħà´ľ": 4564,
      "Ġ1985": 4565,
      "à´ķà´¡": 4566,
      "à´ķà´®à´±": 4567,
      "Ġà´¤à´±": 4568,
      "Ġà´İà´Ĳà´İ": 4569,
      "Ġà´ħà´¸à´¨": 4570,
      "àµ¼à´¹à´®": 4571,
      "Ġà´ħà´²à´¹à´¬": 4572,
      "à´ªà´łà´¨à´¤": 4573,
      "à´°àµ»à´®": 4574,
      "à´³à´ķàµ¾": 4575,
      "à´ļà´ķà´°": 4576,
      "Ġà´Ĩà´ªà´¤": 4577,
      "à´¹à´¬à´¨": 4578,
      "Ġà´Īà´¡à´¨": 4579,
      "à´µà´´à´ķ": 4580,
      "Ġà´ªà´°à´µ": 4581,
      "Ġà´Ĩà´´à´®": 4582,
      "à´¨à´®àµ¼à´¦": 4583,
      "Ġà´«à´¡": 4584,
      "à´²à´±à´¯": 4585,
      "à´¯àµ»à´±": 4586,
      "ÙĲ": 4587,
      "à´·à´¤à´µà´¹": 4588,
      "ment": 4589,
      "Ġà´ħà´¸à´¦": 4590,
      "Ġ1947": 4591,
      ".âĢĿ": 4592,
      "à´µà´Łà´ķ": 4593,
      "Ġà´İà´¨à´°": 4594,
      "àµį.''": 4595,
      "à´ļà´¨à´µ": 4596,
      "àµ¾à´¡àµ»": 4597,
      "ity": 4598,
      "Ġà´ªà´£à´ķ": 4599,
      "Ġ750": 4600,
      "à´®à´°à´Ļ": 4601,
      "à´µà´¯à´°": 4602,
      "Ġà´ķà´µà´²à´¯": 4603,
      "line": 4604,
      "àµ»à´Ń": 4605,
      "à´ľà´¨à´µ": 4606,
      "Ġà´Ĳà´¡à´¨": 4607,
      "à´ķà´¸à´¨à´®": 4608,
      "à´ªà´£à´±": 4609,
      "**": 4610,
      "à´°à´³à´ķ": 4611,
      "Ġà´µà´ĸà´«": 4612,
      "à´¨à´¨à´·": 4613,
      "Ġ240": 4614,
      "Ġà´ħàµ½à´«": 4615,
      "Ġà´¨à´¯à´ª": 4616,
      "Ġà´Ĩàµº": 4617,
      "à´ĩà´ķ": 4618,
      "àµį,âĢĿ": 4619,
      "Ġà´ľà´¯à´¶": 4620,
      "à´Ļà´µ": 4621,
      "700": 4622,
      "à´¿àµį": 4623,
      "Ġà´ķà´®àµ½": 4624,
      "Ġà´īà´Łà´®à´ķàµ¾": 4625,
      "Ġ220": 4626,
      "av": 4627,
      "à´Ĳà´İà´®": 4628,
      "Ġà´¤à´³à´³": 4629,
      "Ġà´ķàµ¼à´«": 4630,
      "ang": 4631,
      "àµįâĢĻ.": 4632,
      "Ġfor": 4633,
      "Ġà´Ĩà´´à´ķ": 4634,
      "Ġà´±à´¡": 4635,
      "Ġà´īà´¤à´ķ": 4636,
      "à´łà´Ń": 4637,
      "Ġà´²à´¯à´£": 4638,
      "à´Ĵà´ķ": 4639,
      "Ġà´¸à´®à´°à´ª": 4640,
      "à´¨à´µà´³": 4641,
      "à´¸à´£àµ½": 4642,
      "àµĨ....": 4643,
      "ia": 4644,
      "Ġà´ªà´±à´¯à´°": 4645,
      "Ġbhp": 4646,
      "Ġarticle": 4647,
      "à´ļà´µà´¨": 4648,
      "Ġà´¸à´¹à´ľ": 4649,
      "Ġ1975": 4650,
      "Ġà´¤à´´": 4651,
      "à´°à´¹à´¸": 4652,
      "à´¸à´µà´ķ": 4653,
      "à´ªà´²à´ķ": 4654,
      "àµį.[": 4655,
      "Ġà´ĵà´ļ": 4656,
      "à´®àµ¼à´¶à´¤": 4657,
      "à´Ĳà´İà´¯": 4658,
      "Ġ102": 4659,
      "àµºà´ªà´¤": 4660,
      "à´¹à´£": 4661,
      "ĠZ": 4662,
      "à´ķà´³à´ķ": 4663,
      "à´§à´¨à´°": 4664,
      "Ġà´ħà´¯àµ½à´ķ": 4665,
      "Ġà´īà´³à´µ": 4666,
      "àµį*": 4667,
      "à´¤à´ľà´¨à´Ļ": 4668,
      "à´¢à´¨": 4669,
      "--------": 4670,
      "Ġon": 4671,
      "Ġà´Ĩà´Ļ": 4672,
      "if": 4673,
      "à´¦à´¯à´µ": 4674,
      "Ġà´¤à´Łà´¯à´£à´®": 4675,
      "Ġà´¦àµ¼à´¶à´¨à´¤": 4676,
      "Ġà´¨à´¨à´¯": 4677,
      "à´·à´£à´¯": 4678,
      "à´ķà´²à´ķ": 4679,
      "à´¯àµ¼à´¥": 4680,
      "à´ªà´³à´Ļ": 4681,
      "Ġà´ªà´ķà´ļ": 4682,
      "à´Ĵà´¸": 4683,
      "à´ªà´£à´ķ": 4684,
      "à´ĸà´¸": 4685,
      "Ġ118": 4686,
      "à´±à´³à´µ": 4687,
      "à´«à´¸àµ¼": 4688,
      "à´°à´¸à´Ń": 4689,
      "Ġà´ķàµ¼à´ķ": 4690,
      "à´¨à´²à´¤": 4691,
      "Ġà´¨à´µà´ķ": 4692,
      "à´®à´¯à´¯": 4693,
      "à´ķà´®à´¹": 4694,
      "àµį'.": 4695,
      "Ġà´²à´¯à´¨": 4696,
      "Ġà´ħà´¨à´Ļ": 4697,
      "à´²à´®à´²": 4698,
      "Ġà´¿": 4699,
      "à´¾ÂŃ": 4700,
      "Ġà´¬àµ½à´±": 4701,
      "®ļ": 4702,
      "à´£à´³": 4703,
      "àµįâĢĮâĢĮ": 4704,
      "Ġà´ķà´³à´µ": 4705,
      "Ġà´¸à´¹à´¦": 4706,
      "Ġà´ªà´µà´±": 4707,
      "Ġà´Ńà´£": 4708,
      "à´·àµº": 4709,
      "à´ļà´Łà´¯": 4710,
      "à´ļà´®à´ļ": 4711,
      "ith": 4712,
      "Ġà´®à´ķàµ¾à´ķ": 4713,
      "Ġà´¸à´±": 4714,
      "Ġà´ķà´Łà´Ļ": 4715,
      "Ġà´¡à´¸": 4716,
      "à´¾âĢĻ": 4717,
      "à´ħà´¶": 4718,
      "Ġà´®à´ļ": 4719,
      "à´ķà´¸à´®": 4720,
      "à´¬à´°à´¨": 4721,
      "à´°à´µà´²": 4722,
      "à´¨à´°à´ļà´¯": 4723,
      "à´¨àµ»à´¸": 4724,
      "Ġà´¹à´¸àµ»": 4725,
      "Ġà´ªà´¦à´Ļ": 4726,
      "Ġ1967": 4727,
      "à´¾?": 4728,
      "à´³à´ŀ": 4729,
      "àµ¼à´ĸà´£": 4730,
      "à´¸à´°à´°": 4731,
      "Ġ07": 4732,
      "Ġà´¸à´¹à´ķà´°à´£à´µ": 4733,
      "ain": 4734,
      "à´°à´®à´£à´ª": 4735,
      "à´£àµ¼à´¤": 4736,
      "Ġà´ķà´³à´ª": 4737,
      "àµ¼à´ĸ": 4738,
      "Ġà´İàµºà´ªà´¤": 4739,
      "àµĭâĢĭâĢĭâĢĭ": 4740,
      "Ġà´Ńà´µà´¨à´¤": 4741,
      "Ġà´ķà´´à´®": 4742,
      "àµį';": 4743,
      "Ġà´ľà´¯à´¦": 4744,
      "àµ»à´µà´¶à´¤": 4745,
      "à´ªà´°à´ķ": 4746,
      "à´Ļà´Ł": 4747,
      "à´§à´®à´²": 4748,
      "à´³àµ½": 4749,
      "à´¦à´®à´¯": 4750,
      "Ġà´ħà´ªà´®à´°": 4751,
      "Ġà´ķà´Łà´¬": 4752,
      "Ġà´ªà´Łà´ļ": 4753,
      "à´°à´µà´£à´¤à´ķà´³": 4754,
      "Ġà´Ńà´°à´£à´µ": 4755,
      "od": 4756,
      "Ġà´¤à´ķàµ¼à´ª": 4757,
      "Ġ112": 4758,
      "Ġ1979": 4759,
      "àµ¼à´¬àµº": 4760,
      "ĠPre": 4761,
      "Ġà´¸à´ħà´¦": 4762,
      "Ġà´Ĭà´±": 4763,
      "Ġmin": 4764,
      "Ġà´ķà´µà´ļ": 4765,
      "Ġà´«à´¯àµ¼à´«": 4766,
      "à´µà´ķàµ¾": 4767,
      "Ġà´®à´²à´µ": 4768,
      "à´®à´¨à´¯": 4769,
      "à´Ĺà´®à´µ": 4770,
      "iv": 4771,
      "à´Ľà´¯": 4772,
      "à´ªàµ¼à´µ": 4773,
      "î®ļ": 4774,
      "àµį!!": 4775,
      "à´µà´¨à´Ł": 4776,
      "Ġà´ķà´²àµ¼à´¨": 4777,
      "Ġà´®à´£àµ½": 4778,
      "à´Ĩàµ»": 4779,
      "Ġ107": 4780,
      "Ġà´Ķà´ªà´ļ": 4781,
      "ĠThe": 4782,
      "à´ªà´łà´¨": 4783,
      "àµ¾à´¬": 4784,
      "Ġà´īà´¯à´°à´Ļ": 4785,
      "Ġà´¹à´¤": 4786,
      "Ġ1957": 4787,
      "Ġà´®à´ķà´°à´µ": 4788,
      "Ġî®ļ": 4789,
      "Ġ1962": 4790,
      "à´°à´ķà´Ļ": 4791,
      "à´ľà´¯à´¸": 4792,
      "àµĨ\"": 4793,
      "Ġà´ķàµºà´¸àµ¾à´Ł": 4794,
      "900": 4795,
      "Ġ$": 4796,
      "que": 4797,
      "Ġà´İàµ»à´İà´¸": 4798,
      "Ġ650": 4799,
      "à´¯àµ¼à´¬": 4800,
      "ÙĴ": 4801,
      "Ġà´¤à´²à´µàµ»": 4802,
      "àµĩâĢĻ": 4803,
      "Ġà´µàµ¼à´§à´¨à´¯": 4804,
      "à´¯à´¤à´²à´¸": 4805,
      "à´Ľà´¨à´®": 4806,
      "à´Ĩà´¤": 4807,
      "à´°à´ķà´Łà´¨à´ªà´¤": 4808,
      "à´¸à´¹à´®": 4809,
      "Ġà´¨à´Ļ": 4810,
      "à´±à´ľ": 4811,
      "uly": 4812,
      "à´¤à´¶à´°": 4813,
      "Ġà´¬à´Ļ": 4814,
      "Ġà´ľà´¨à´ªà´ķ": 4815,
      "àµį''": 4816,
      "Ġà´¤à´³à´ļ": 4817,
      "Ġ09": 4818,
      "à´²à´Ńà´®": 4819,
      "àµģÂŃ": 4820,
      "àµģ.âĢĻ": 4821,
      "à´²à´Łà´¯": 4822,
      "Ġà´ħà´ªà´¹à´°": 4823,
      "à´±à´®à´±": 4824,
      "àµ½à´ªà´¤": 4825,
      "à´µà´²à´±": 4826,
      "à´®à´ªà´¦": 4827,
      "Ġà´¸àµ¼à´Ĺ": 4828,
      "Ġà´¹à´«": 4829,
      "à´ªà´¦à´µ": 4830,
      "àµĩâĢĭâĢĭâĢĭ": 4831,
      "à´·à´¯à´°": 4832,
      "à´µà´£à´¨": 4833,
      "Ġ02": 4834,
      "à´ªà´Łà´¤": 4835,
      "à´ĺà´¦": 4836,
      "EW": 4837,
      "à´§à´®à´¤": 4838,
      "Ġà´ħà´±à´µ": 4839,
      "Ġà´ħà´Ĺà´¤": 4840,
      "à´ĺàµ¼à´·à´Ļ": 4841,
      "Ùĩ": 4842,
      "Ġst": 4843,
      "à´µà´²à´¤": 4844,
      "àµ¼à´®à´²": 4845,
      "Ġà´ħà´µà´¤à´°à´£à´¤": 4846,
      "Ġà´ķà´®à´±": 4847,
      "à´§à´Ń": 4848,
      "àµ¼à´¬à´²à´®": 4849,
      "à´·à´£à´¨": 4850,
      "Ġà´Ĩà´¨à´ª": 4851,
      "Ġà´¨à´¯àµ»": 4852,
      "Ġ360": 4853,
      "Ġà´¤à´³à´Ļ": 4854,
      "ĠY": 4855,
      "Ġà´±àµº": 4856,
      "à´Ńà´°à´£à´ķ": 4857,
      "Ġà´µàµºà´ª": 4858,
      "âĪĻ": 4859,
      "à´ŀàµ¼": 4860,
      ".'": 4861,
      "à´ķà´²à´®": 4862,
      "Ġà´®à´²à´¬à´¨": 4863,
      "à´İà´İ": 4864,
      "ĠMore": 4865,
      "ĠâĨ": 4866,
      "Ġ1948": 4867,
      "à´ķà´ªà´°": 4868,
      "à´¡à´¨à´µ": 4869,
      "à´®à´´à´¯": 4870,
      "à´®à´°à´£à´¯": 4871,
      "Ġà´īà´¡": 4872,
      "àµįâĢį\"": 4873,
      "àµ½à´·": 4874,
      "Ġà´µà´²à´ŀ": 4875,
      "àµ»à´¸àµº": 4876,
      "Ġà´ªà´łà´¨à´®": 4877,
      "Ġ06": 4878,
      "à´ĺà´Łà´¨à´µ": 4879,
      "AR": 4880,
      "Ġà´ľà´²à´®": 4881,
      "Ġ1964": 4882,
      "à´¬à´ľ": 4883,
      "à´¸à´¤à´Łà´¸": 4884,
      "Ġà´ľà´¨à´¶": 4885,
      "à´Łà´£à´Ļ": 4886,
      "ÙĬ": 4887,
      "àµįâĢĵ": 4888,
      "Ġà´ªà´³à´³": 4889,
      "Ġ1978": 4890,
      "à´®à´ķà´¥": 4891,
      "han": 4892,
      "Ġà´ªà´µà´²": 4893,
      "Ġ135": 4894,
      "à´¨à´°à´¨": 4895,
      "uary": 4896,
      "à´°à´®à´ª": 4897,
      "âĢĻ;": 4898,
      "Ùı": 4899,
      "Ġi": 4900,
      "Ġà´®à´£à´µ": 4901,
      "ess": 4902,
      "Ġago": 4903,
      "ric": 4904,
      "Ġà´Ĩà´¶à´¯à´®": 4905,
      "à´±à´±à´¨": 4906,
      "Ġà´¨à´¤": 4907,
      "Ġà´ħà´±à´ķ": 4908,
      "Ġà´Ńà´°à´£à´¨": 4909,
      "à´µà´°à´¶": 4910,
      "à´¯à´·": 4911,
      "à´¡à´²à´ķ": 4912,
      "ĠJuly": 4913,
      "à´°à´³à´ª": 4914,
      "Ġà´ĩà´²à´ķàµ¾": 4915,
      "Ġà´¸àµ»": 4916,
      "à´¡à´µà´°": 4917,
      "à´´à´ķà´¤": 4918,
      "à´ªà´¨à´¶": 4919,
      "Ġ103": 4920,
      "àµ½à´¤à´¨": 4921,
      "Ġà´¦à´£": 4922,
      "à´Ĺà´¤à´¸": 4923,
      "à´ļà´±àµ½": 4924,
      "à´ķà´¤à´ķàµ¾": 4925,
      "à´§à´ľ": 4926,
      "Ġ106": 4927,
      "à´®à´ķà´¥à´¯": 4928,
      "Ġà´ıà´¨": 4929,
      "à´·àµ»à´®": 4930,
      "Ġ05": 4931,
      "Ġà´īà´µ": 4932,
      "Ġde": 4933,
      "à´®à´¹à´²": 4934,
      "à´Īà´¦": 4935,
      "ÙĨ": 4936,
      "Ġà´īà´³à´³": 4937,
      "à´¡àµ»à´¸": 4938,
      "à´ªà´ķà´°à´®": 4939,
      "à´ªà´´à´ķ": 4940,
      "à´«àµ»": 4941,
      "Ġà´ķà´°àµ¾": 4942,
      "à´ļà´¯à´¦": 4943,
      "à´¶à´µà´¨": 4944,
      "Ġà´ĩà´£à´Ļ": 4945,
      "Ġà´ªà´²à´ļà´°à´ķ": 4946,
      "Ġà´ħà´®àµ¼à´¤": 4947,
      "à´¸à´¨à´¯": 4948,
      "àµ½à´µàµ¼": 4949,
      "Ġà´ħà´³à´¨": 4950,
      "Ġà´ľà´¯àµ»": 4951,
      "à´µàµ¼à´£à´¤": 4952,
      "Ġà´®à´£à´ª": 4953,
      "ĠAp": 4954,
      "à´µà´¯à´µà´Ļ": 4955,
      "ĠâĢĶ": 4956,
      "à´¨à´¯à´°": 4957,
      "à´İà´Ļ": 4958,
      "ill": 4959,
      "à´°à´³à´¯à´¬": 4960,
      "à´ķà´¹": 4961,
      "àµį,,,": 4962,
      "Ġà´ħà´ªà´²à´ªà´¨": 4963,
      "Ġà´İà´¯à´±": 4964,
      "Ġà´¤à´Łà´¸à´Ļ": 4965,
      "].": 4966,
      "Ġà´ħà´²à´±": 4967,
      "Ġà´ķà´ªà´Ł": 4968,
      "àµį',": 4969,
      "Ġ2030": 4970,
      "Ġà´īà´ªà´¸à´®": 4971,
      "ĠMay": 4972,
      "Ġr": 4973,
      "Ġà´īà´£àµ¼à´¨": 4974,
      "à´¹à´¤à´ª": 4975,
      "à´ļà´£": 4976,
      "à´°à´µà´ļà´¨à´Ļ": 4977,
      "Ġà´ķà´²àµ¼à´¤": 4978,
      "à´Łà´°à´£": 4979,
      "à´ļà´°à´£à´µ": 4980,
      "Ġà´Łà´¯à´°": 4981,
      "àµĹâĢĭ": 4982,
      "Ġà´®à´¥": 4983,
      "à´¡à´¨à´®": 4984,
      "à´ļà´¤à´¨": 4985,
      "âĢĮâĢĮ": 4986,
      "Ġà´®à´£à´¤": 4987,
      "Ġà´ªà´¨à´®": 4988,
      "à´«àµ»à´¸": 4989,
      "à´¶à´¹à´¤": 4990,
      "Ġà´Ĳà´²à´¨": 4991,
      "Ġ124": 4992,
      "à´¨à´®à´¨à´¤": 4993,
      "à´Łà´ķà´µà´¸": 4994,
      "Ġà´īà´ªà´ķà´°à´£à´®": 4995,
      "Ġ117": 4996,
      "Ġà´¤à´Łà´¯à´£": 4997,
      "Ġ126": 4998,
      "Ġà´ħàµ¼à´¹à´°": 4999,
      "à´¿âĢĭâĢĭâĢĭâĢĭàµĨ": 5000,
      "à´§à´¸à´®": 5001,
      "à´¬à´²à´¤": 5002,
      "à´§à´µàµ½à´ķ": 5003,
      "une": 5004,
      "à´µàµ»à´¸": 5005,
      "Ġà´ľà´¨à´¨à´¤": 5006,
      "à´ķàµ¼à´·": 5007,
      "Ġà´¨à´ĸà´Ļ": 5008,
      "Ġà´¬à´¹à´³à´®": 5009,
      "Ġ047": 5010,
      "àµįâĢĭâĢĭ.": 5011,
      "à´¤à´°à´¸": 5012,
      "ÙĪ": 5013,
      "Ġà´ľà´¯à´µ": 5014,
      "à´µà´¶à´ķ": 5015,
      "à´ªà´Ńà´ķ": 5016,
      "à´¾à´¾": 5017,
      "âĢįàµį": 5018,
      "à´¹à´ķà´¨": 5019,
      "à´¨à´·": 5020,
      "à´¾à´Ĥ)": 5021,
      "à´Ĩà´¸": 5022,
      "Ġà´µà´¨à´Ļ": 5023,
      "à´ķà´µà´±": 5024,
      "Ġà´¹àµ¼à´·": 5025,
      "Ġ08": 5026,
      "à´±àµ¼à´µ": 5027,
      "à´¤àµ¼à´¦": 5028,
      "à´¤à´Łà´ķ": 5029,
      "Ġà´ķà´°à´Ļ": 5030,
      "Ġà´¨à´°à´ķ": 5031,
      "àµĢ...": 5032,
      "âĢĲ": 5033,
      "Ġà´ħà´ªà´°à´¨": 5034,
      "Ġ1972": 5035,
      "Ġ\\": 5036,
      "Ġà´ķà´²à´ķà´³": 5037,
      "à´¦à´¯à´Ń": 5038,
      "ĠNm": 5039,
      "Ġà´ķà´°à´®à´¨": 5040,
      "à´§à´¦": 5041,
      "à´®à´±à´ķàµ¾": 5042,
      "Ġà´¨à´Ĺà´°à´¸à´Ńà´ķà´³": 5043,
      "ht": 5044,
      "à´Ĺà´°à´¤": 5045,
      "à´ħà´¡": 5046,
      "Ġ230": 5047,
      "à´ķà´Łàµ½": 5048,
      "ha": 5049,
      "à´īà´®": 5050,
      "Ġ03": 5051,
      "Ġà´ĵà´·": 5052,
      "à´¤à´°à´²": 5053,
      "à´·à´ķàµ¾à´ķ": 5054,
      "Ġmm": 5055,
      "EWS": 5056,
      "\".": 5057,
      "ĠSt": 5058,
      "Ġ1965": 5059,
      "à´ªà´¨à´ªà´°à´®": 5060,
      "à´«à´¸": 5061,
      "à´ªà´´à´¤": 5062,
      "Ġà´²à´¹": 5063,
      "à´¯à´¸à´®à´°": 5064,
      "à´¹àµ»à´¦": 5065,
      "à´³à´¬": 5066,
      "à´®à´¤à´¯": 5067,
      "à´Ĺà´ªà´°": 5068,
      "à´°à´¤à´ª": 5069,
      "Ġà´ħà´¸à´®à´¤": 5070,
      "à´¬à´¸à´®": 5071,
      "à´Ĳà´ľ": 5072,
      "à´°à´¤à´ķ": 5073,
      "à´ĸà´²à´ķàµ¾": 5074,
      "ĠĠĠĠĠĠĠĠĠĠĠĠĠĠĠĠĠĠĠĠĠĠĠĠĠĠĠĠĠĠĠĠ": 5075,
      "Ġà´²à´¯à´£à´²": 5076,
      "Ġà´ķà´¸à´¬": 5077,
      "àµ¼à´³": 5078,
      "Ġà´İàµ½à´ĩà´¡": 5079,
      "Ġà´®à´¦à´°": 5080,
      "à´¦à´ļ": 5081,
      "Ġà´ĩà´¤à´±": 5082,
      "à´¤à´°à´µà´ķ": 5083,
      "Ġà´§à´¨à´¸à´®": 5084,
      "ĠðŁ": 5085,
      "àµĭâĢį": 5086,
      "à´İà´İà´ļ": 5087,
      "Ġà´ĸà´®à´±": 5088,
      "à´®à´ķàµ¾à´ķ": 5089,
      "Ġà´®à´°à´ļ": 5090,
      "UTC": 5091,
      "à´°à´µà´¨": 5092,
      "Ġà´ħà´°à´²à´ķ": 5093,
      "Ġà´ħàµºà´²": 5094,
      "Ġà´µà´ķà´µ": 5095,
      "Ġà´ĩàµ»à´«àµ¼à´®": 5096,
      "Ġà´ķàµ½": 5097,
      "Ġà´¯à´ľà´®": 5098,
      "à´¦àµ¾": 5099,
      "Ġ25000": 5100,
      "Ġà´ªà´¸à´«": 5101,
      "Ġà´¨à´«": 5102,
      "à´ĺà´Łà´ķà´Ļ": 5103,
      "age": 5104,
      "AL": 5105,
      "à´®à´²à´ª": 5106,
      "àµį.\"": 5107,
      "Ġà´Ĳà´¬": 5108,
      "à´¹à´ļ": 5109,
      "à´°à´£à´¯à´ķ": 5110,
      "Ġà´ªà´¸": 5111,
      "à´¨à´¯à´®": 5112,
      "Ġ153": 5113,
      "Ġ175": 5114,
      "Ġà´¯à´¦": 5115,
      "Ġà´ľà´ķ": 5116,
      "Ġà´ľà´²à´ķ": 5117,
      "àµ¾à´¤": 5118,
      "Ġà´ªà´°à´¶": 5119,
      "à´Ļà´¤": 5120,
      "Ġ1800": 5121,
      "àµ½à´µà´ļ": 5122,
      "à´¸à´ļ": 5123,
      "Ġà´¸à´«à´²à´®": 5124,
      "Ġà´ħà´´à´ķ": 5125,
      "à´ĺà´Łà´¨à´ķ": 5126,
      "Ġ--": 5127,
      "Ġà´¹à´¯": 5128,
      "à´®à´¸à´¤": 5129,
      "Ġà´ļà´®à´ļ": 5130,
      "à´´à´°": 5131,
      "Ġ109": 5132,
      "Ġ1981": 5133,
      "ST": 5134,
      "à´¤àµ»à´ķ": 5135,
      "à´ķà´Ĺ": 5136,
      "Ġà´ħà´£à´¯": 5137,
      "Ġ114": 5138,
      "Ġà´¶à´ª": 5139,
      "][": 5140,
      "à´°à´Ńà´µ": 5141,
      "Ġà´īà´£àµ¼à´¤": 5142,
      "ĠÂ·": 5143,
      "Ġà´¬à´¦àµ½": 5144,
      "à´®à´¯à´Ļ": 5145,
      "Ġà´®à´Łà´µ": 5146,
      "àµĤà´Ĥ,": 5147,
      "à´°à´µà´£": 5148,
      "Ġà´īà´Łà´®à´ķàµ¾à´ķ": 5149,
      "âĢĭàµģ": 5150,
      "kerala": 5151,
      "àµ¼à´£à´¯à´¤": 5152,
      "Ġà´ĩà´¤à´²": 5153,
      "Ġà´ªà´²à´Ń": 5154,
      "à´«à´²à´¤": 5155,
      "àµģâĢĭâĢĭâĢĭâĢĭ": 5156,
      "à´§à´ķà´³": 5157,
      "Ġà´ĵàµ¼à´®à´¯": 5158,
      "àµįâĢįâĢĿ": 5159,
      "Ġà´«à´²à´ķ": 5160,
      "à´Łà´ªà´±à´ŀ": 5161,
      "Ġà´ľà´µà´¹": 5162,
      "à´¯à´´": 5163,
      "âĢĭâĢĭâĢĭâĢĭâĢĭ": 5164,
      "ly": 5165,
      "à´ĸà´ļ": 5166,
      "Ġ8000": 5167,
      "ee": 5168,
      "Ġà´Ĩà´ķà´Ł": 5169,
      "Ġà´İà´µà´°": 5170,
      "àµį.,": 5171,
      "Ġà´®àµ½à´¸": 5172,
      "àµ¼à´Ĩàµ»": 5173,
      "à´ħà´µà´³": 5174,
      "ĠJune": 5175,
      "à´¯à´¦àµ¼à´¶": 5176,
      "Ġà´ıà´ŀ": 5177,
      "à´µà´±à´¨": 5178,
      "à´¯àµ»à´®": 5179,
      "à´ľà´¨à´ķà´°à´®": 5180,
      "à´¦àµ¼à´¶à´ķà´°": 5181,
      "990": 5182,
      "à´¿àµĩ": 5183,
      "ĠâĢĭàµĩ": 5184,
      "à´ªà´Łà´ķ": 5185,
      "Ġà´ļà´³": 5186,
      "Ġà´§à´¨à´µà´ķ": 5187,
      "à´¨à´°à´µ": 5188,
      "à´µàµ¼à´ª": 5189,
      "Ġ1969": 5190,
      "ou": 5191,
      "à´·à´ªà´°": 5192,
      "Ġ190": 5193,
      "à´ĩà´Łà´¤": 5194,
      "Ġà´ľàµ¼à´®àµ»": 5195,
      "VI": 5196,
      "à´ķà´·": 5197,
      "à´¤à´¬à´¨": 5198,
      "à´¸à´¡à´±": 5199,
      "à´µà´¶à´ª": 5200,
      "Ġà´µàµ¼à´·à´ķ": 5201,
      "à´¤à´¨à´¯": 5202,
      "à´°à´ķà´²": 5203,
      "à´µà´ķà´ķà´³": 5204,
      "Ġà´Ĵà´°à´®": 5205,
      "à´®à´£à´°": 5206,
      "à´µàµ¼à´£à´®": 5207,
      "Ġ113": 5208,
      "Ġà´ªà´´à´¶": 5209,
      "àµįÂŃ": 5210,
      "Ġà´ĩà´²à´µ": 5211,
      "Ġà´İà´Ĳà´İà´¡": 5212,
      "à´µà´¶à´µ": 5213,
      "Ġà´Łà´µà´°": 5214,
      "Ġà´ķà´°à´ķà´µ": 5215,
      "Ġà´¨àµ¼à´¤": 5216,
      "ass": 5217,
      "à´Ĥ';": 5218,
      "à´°à´¯à´®": 5219,
      "à´¬à´ª": 5220,
      "Ġà´Ķà´¸": 5221,
      "àµįâĢĻ,": 5222,
      "Ġà´ķàµ¼à´·à´ķà´¨": 5223,
      "Ġà´īà´ªà´ķà´°à´£à´¤": 5224,
      "à´ĩà´µà´°": 5225,
      "Ġà´ªà´¨à´ļ": 5226,
      "Ġà´Ĩà´²à´Ļ": 5227,
      "Ġ7000": 5228,
      "Ġà´ªà´¨à´®à´°": 5229,
      "à´¸à´Ł": 5230,
      "àµį.)": 5231,
      "Ġ119": 5232,
      "art": 5233,
      "Ġtor": 5234,
      "Ġ1976": 5235,
      "Ġ1956": 5236,
      "àµĨâĢĮ": 5237,
      "Ġà´®à´£à´®": 5238,
      "Ġà´Ńà´µà´¨à´Ļ": 5239,
      "à´ªà´±à´ļ": 5240,
      "àµ¾à´¸àµ¼": 5241,
      "à´ħà´µà´¨": 5242,
      "......": 5243,
      "à´¹à´ľ": 5244,
      "Ġà´īà´¯à´°à´µ": 5245,
      "Ġà´ĩà´¯àµ¼": 5246,
      "à´ļà´¯à´Ļ": 5247,
      "à´łà´°": 5248,
      "ant": 5249,
      "à´¯à´ķà´²": 5250,
      "à´ľà´¨à´±à´²": 5251,
      "à´ľà´¯à´¦": 5252,
      "Ġà´Ĩà´µà´£": 5253,
      "à´µà´¤à´¤": 5254,
      "àµ½à´¶": 5255,
      "und": 5256,
      "à´¦à´ķà´°à´®": 5257,
      "à´±à´µà´²": 5258,
      "à´Ĵà´İà´¸": 5259,
      "Ġ256": 5260,
      "Ġà´ħàµ¼à´¥": 5261,
      "Ġà´ħà´ķà´²à´¤": 5262,
      "Ġà´Ńà´°à´£à´ªà´°": 5263,
      "à´³àµ¼à´®": 5264,
      "à´ªà´Łà´µ": 5265,
      "Ġà´±à´¯àµ½": 5266,
      "à´ķà´¤à´¨": 5267,
      "àµ¼à´®àµ½": 5268,
      "ost": 5269,
      "à´Ĺàµ¼à´Ń": 5270,
      "à´ĸàµ¼à´ľ": 5271,
      "Ġà´İà´Łà´µà´£": 5272,
      ".âĢĻ": 5273,
      "ell": 5274,
      "à´¨à´ľà´²": 5275,
      "à´¾à´Ĥ'": 5276,
      "à´²à´ķà´ª": 5277,
      "à´¯à´µàµ½à´ķ": 5278,
      "vious": 5279,
      "Ġà´ĩà´°à´ļ": 5280,
      "à´¨à´°à´²à´ķ": 5281,
      "à´ŀà´¨à´¨": 5282,
      "Ġà´Ńà´¯à´µ": 5283,
      "Ġà´ħà´Ńà´¯à´ķ": 5284,
      ".àµį": 5285,
      "à´±à´ķàµ¾": 5286,
      "Ġà´¸àµ¼à´ľà´±": 5287,
      "Ġà´İàµ»à´±": 5288,
      "à´´à´¨": 5289,
      "Ġtorque": 5290,
      "ovi": 5291,
      "atest": 5292,
      "qu": 5293,
      "à´¤à´Ńà´ķ": 5294,
      "à´ĩà´Ļ": 5295,
      "ĠØ§": 5296,
      "à´¬à´±à´²": 5297,
      "Ġà´Īà´¯à´Ł": 5298,
      "Ġà´¸à´Īà´¦": 5299,
      "ook": 5300,
      "Ġà´¶àµ¼à´®à´¯": 5301,
      "port": 5302,
      "à´µàµ¼à´·à´®": 5303,
      "à´ŀà´¹à´®": 5304,
      "à´ĸà´°à´£à´¤": 5305,
      "à´¯à´ªà´ķ": 5306,
      "har": 5307,
      "Ġ111": 5308,
      "Ġ138": 5309,
      "ext": 5310,
      "à´µà´°à´£à´Ļ": 5311,
      "à´ľà´¨à´ķ": 5312,
      "Ġà´¯à´ķ": 5313,
      "à´¸à´Ńà´ķà´³": 5314,
      "àµįâĢĮ...": 5315,
      "Ġà´īà´´à´µ": 5316,
      "Ġà´Ĩà´¦àµ¼à´¶": 5317,
      "Ġà´ħà´²à´¯à´Ł": 5318,
      "Ġà´®à´²à´ķà´³": 5319,
      "àµºà´®à´ķ": 5320,
      ".âĢĭ": 5321,
      "à´Ĺà´ŀ": 5322,
      "Ġà´¹à´±à´®": 5323,
      "Ġà´Ĵà´°à´¨": 5324,
      "Ġà´Ĭà´¤": 5325,
      "à´ļà´¨à´Ļ": 5326,
      "Ġà´ªà´Łà´¤": 5327,
      "à´¹à´ķà´°": 5328,
      "Ġà´Īà´ļ": 5329,
      "Ġà´ķà´³à´±": 5330,
      "àµģâĢĭàµĨ": 5331,
      "ĠPrevious": 5332,
      "à´±àµ¼à´ª": 5333,
      "à´Ĩà´²": 5334,
      "Ġà´ļà´®à´¯": 5335,
      "Ġà´¸à´¹à´ķ": 5336,
      "Ġà´®à´ķà´°": 5337,
      "Ġà´Łàµ¼à´¬": 5338,
      "Ġà´¨à´¯àµ»à´¤": 5339,
      "Ġis": 5340,
      "Ġ123": 5341,
      "Ġà´ħà´¨à´°": 5342,
      "à´İàµ»à´İ": 5343,
      "à´µà´¹à´£à´¤": 5344,
      "à´ļà´²à´¨à´¤": 5345,
      "à´¯à´¹": 5346,
      "à´ŀà´¶": 5347,
      "Ġà´Īà´£": 5348,
      "à´°à´·à´¨": 5349,
      "à´µà´¤à´®": 5350,
      "à´Ĺà´ļ": 5351,
      "à´ĺà´£": 5352,
      "Ġà´²à´¸": 5353,
      "àµ¼à´£àµ¼": 5354,
      "à´¨à´ķà´°à´¨": 5355,
      "Ġà´µà´¨à´Ń": 5356,
      "Ġ(\"": 5357,
      "à´ĵà´¡": 5358,
      "à´¯à´ķà´¸": 5359,
      "Ġà´ķàµ¾à´ļ": 5360,
      "Ġ3500": 5361,
      "Ġà´İà´®àµ¼à´ľ": 5362,
      "Ġ1973": 5363,
      "à´°à´¹à´°": 5364,
      "àµ»à´¸à´¨": 5365,
      "à´¸à´®à´¦": 5366,
      "Ġ122": 5367,
      "à´¾àµĩ": 5368,
      "Ġà´¹à´¯àµ¼à´¸": 5369,
      "Ġà´Ĩàµ½à´«": 5370,
      "àµģ''": 5371,
      "à´¶à´¬à´°": 5372,
      "à´Ĺà´¤à´®à´¨": 5373,
      "Ġà´ĵà´£à´¸à´¦": 5374,
      "Ġà´ħàµ¼à´§à´°": 5375,
      "Ġà´ªà´±à´ª": 5376,
      "à´¾à´Ĥ-": 5377,
      "Ġ116": 5378,
      "Ġà´ĩà´´": 5379,
      "à´£à´¤à´ķà´³": 5380,
      "ĠAn": 5381,
      "à´®à´²à´¤": 5382,
      "à´·àµ¼": 5383,
      "Ġà´İà´İà´¨": 5384,
      "à´¥à´¸": 5385,
      "à´¶à´®à´²": 5386,
      "Ġà´¨à´¨à´µ": 5387,
      "Ġà´ıà´ķà´¤": 5388,
      "à´ıà´´": 5389,
      "Ġà´ĩà´¨à´®": 5390,
      "Ġà´ĵà´ªà´£": 5391,
      "à´¯à´±à´¨": 5392,
      "end": 5393,
      "Ġà´¤à´Łà´¤": 5394,
      "àµ½à´¸à´¯": 5395,
      "Ġà´ĩà´´à´ŀ": 5396,
      "à´¬à´²à´ª": 5397,
      "Ġà´Ĺà´ľ": 5398,
      "à´Łà´¡": 5399,
      "à´Ĵà´ª": 5400,
      "Ġ142": 5401,
      "à´§à´¨à´¨": 5402,
      "à´ľà´ķà´¤": 5403,
      "àµģ).": 5404,
      "à´µà´ļà´¨": 5405,
      "Ġà´ªà´ķà´¯": 5406,
      "Ġà´īà´¦à´¯à´ķ": 5407,
      "Ġà´ªà´¨à´¯": 5408,
      "à´®à´¯à´®": 5409,
      "Ġà´ªà´¨à´Ļ": 5410,
      "Ġà´¤à´°à´ª": 5411,
      "Ġà´µà´ķà´µà´°": 5412,
      "ril": 5413,
      "à´®à´ķà´¤à´¯": 5414,
      "Ġà´ķà´¯àµ¼": 5415,
      "à´ŀà´µ": 5416,
      "Ġà´®à´²à´ķà´¯à´±": 5417,
      "à´¤à´°à´®à´²": 5418,
      "à´®à´¬à´¨": 5419,
      "aily": 5420,
      "Ġà´®à´¤à´ķ": 5421,
      "Ġà´Ĳà´¨": 5422,
      "sh": 5423,
      "à´ĸà´°à´®": 5424,
      "india": 5425,
      "Ùĳ": 5426,
      "à´²à´ķàµ¾à´ķ": 5427,
      "Ġà´°à´¸à´¤à´¨": 5428,
      "à´®à´¸à´µ": 5429,
      "Ġà´Ķà´±": 5430,
      "à´°à´®à´£à´ªà´¥à´¤": 5431,
      "à´§à´¤à´°": 5432,
      "Ġà´Ĵà´°à´µà´¸": 5433,
      "Ġà´ķà´µà´³à´ª": 5434,
      "eb": 5435,
      "à´Ĩà´²à´ª": 5436,
      "Ġà´¸à´ĸà´±": 5437,
      "Ġ1930": 5438,
      "Ġà´ľà´²à´ľ": 5439,
      "à´Łà´¯à´°": 5440,
      "à´¸à´ķà´²": 5441,
      "àµ¼à´ľà´¯": 5442,
      "Ġà´ıà´ľ": 5443,
      "ĠâĢľâĢĿ": 5444,
      "Ġà´ªà´¤à´ŀ": 5445,
      "Ġ320": 5446,
      "ika": 5447,
      "à´Ĳà´Ĩàµ¼": 5448,
      "Ġà´¤à´´à´ŀ": 5449,
      "à´¹à´°à´£à´ª": 5450,
      "à´²à´µà´¨": 5451,
      "à´¯à´µà´Ł": 5452,
      "àµ½à´ªà´¨à´¯": 5453,
      "à´¯à´¬à´¸": 5454,
      "àµĨâĢĭâĢĭ": 5455,
      "Ġà´¤àµ»à´±": 5456,
      "Ġà´Ĩà´ķà´¸": 5457,
      "Ġà´ĩàµ»à´±àµ¼à´¨": 5458,
      "ĠMarch": 5459,
      "Ġà´¤à´µà´£à´¤": 5460,
      "Ġà´İà´¯àµ¼à´µ": 5461,
      "à´±àµ¼à´Ł": 5462,
      "àµĤ;": 5463,
      "àµĬ.": 5464,
      "Ġ121": 5465,
      "Ġà´ªà´´à´ŀ": 5466,
      "à´Łà´ķàµ¼à´ķ": 5467,
      "àµģ.\"": 5468,
      "Ġ136": 5469,
      "Ġà´µà´¡": 5470,
      "à´ĩà´±": 5471,
      "à´°à´ľàµ»": 5472,
      "SC": 5473,
      "Ġà´ĵà´Ļ": 5474,
      "à´§àµ¼à´®": 5475,
      "Ġà´ĸà´°": 5476,
      "Ġà´µà´°à´°": 5477,
      "ress": 5478,
      "àµģàµĩ": 5479,
      "Ġà´¨àµ½": 5480,
      "à´¹à´°à´µ": 5481,
      "à´¨à´¸à´®": 5482,
      "à´Ńàµ»": 5483,
      "à´ªà´³à´¯": 5484,
      "Ġà´¦à´¸": 5485,
      "Ġ145": 5486,
      "àµį):": 5487,
      "Ġà´ħàµ¼à´¹à´¤à´¯": 5488,
      "Ġà´ħà´ľà´¨": 5489,
      "àµ¼à´¡àµ»": 5490,
      "Ġà´Ĺà´¯": 5491,
      "ff": 5492,
      "ud": 5493,
      "Ġx": 5494,
      "à´ĺà´ķà´°": 5495,
      "à´ªà´¯àµ¼": 5496,
      "hy": 5497,
      "Ġ165": 5498,
      "à´³à´´": 5499,
      "Ġà´ħà´µà´¨à´µà´¨": 5500,
      "ĠØ§ÙĦ": 5501,
      "Ġà´ħàµ¼à´£": 5502,
      "Ġà´Ĩàµ»à´±à´£": 5503,
      "à´±à´·": 5504,
      "à´°à´¸à´¹": 5505,
      "Ġà´ľà´¨à´¹": 5506,
      "Ġà´ħà´ªà´¸": 5507,
      "àµį&": 5508,
      "Ġà´Ńà´Łà´¨": 5509,
      "Ġà´Īà´µà´°": 5510,
      "à´µà´¯àµ¼": 5511,
      "Ġà´¬à´¹à´³à´¤": 5512,
      "à´¤à´µà´®": 5513,
      "à´Ĥ!!": 5514,
      "àµ¾à´Ĺ": 5515,
      "Ġà´ħà´¸à´¤": 5516,
      "Ġ).": 5517,
      "à´·à´®à´µ": 5518,
      "Ġà´ļà´¤à´ļ": 5519,
      "à´¨à´¯à´µ": 5520,
      "à´µà´¤à´²à´®": 5521,
      "à´ªà´¹": 5522,
      "à´°à´¤à´ķà´³": 5523,
      "Ġà´ħà´ľà´¯à´ķ": 5524,
      "Ġà´ħà´Ĺàµ¼à´µ": 5525,
      "à¥": 5526,
      "Ġà´ĩà´Łà´µà´°": 5527,
      "à´³à´ļà´²à´ļ": 5528,
      "à´Ĺà´®à´£": 5529,
      "à´ĵà´¸": 5530,
      "Ġà´ªà´¦à´¯": 5531,
      "à´·à´°à´®": 5532,
      "à´°à´®à´£à´ķ": 5533,
      "Ġà´ķà´°à´®": 5534,
      "à´¯à´£à´Ĺ": 5535,
      "à´§à´±": 5536,
      "à´ķà´®à´¨": 5537,
      "ĠAug": 5538,
      "à´²à´¨à´®": 5539,
      "à´°à´·à´°": 5540,
      "à´Łà´®à´±": 5541,
      "Ġ50000": 5542,
      "à´¯àµ½à´¸": 5543,
      "àµĤ'": 5544,
      "Ġà´Ĩà´²à´ķ": 5545,
      "à´Ĵà´±": 5546,
      "à´«à´¯à´°": 5547,
      "Ġ1961": 5548,
      "Ã¯": 5549,
      "à´¤à´µà´ķ": 5550,
      "Ġà´Ĩà´°à´¤": 5551,
      "Ġà´ħà´«à´¯": 5552,
      "à´¨à´µà´ķ": 5553,
      "à´§à´°à´¹": 5554,
      "Ġà´ĩà´µà´³": 5555,
      "à´®à´²à´¬": 5556,
      "à´¯à´¨à´²": 5557,
      "Ġà´īà´³à´³à´¤": 5558,
      "ure": 5559,
      "à´ķàµ½à´ķ": 5560,
      "ali": 5561,
      "à´¨à´¹": 5562,
      "à´¾à´ĤâĢĻ": 5563,
      "Ġ``": 5564,
      ",âĢĭ": 5565,
      "Ġà´®à´¹à´°": 5566,
      "ob": 5567,
      "à´ķà´Łà´Ļ": 5568,
      "àµ¼à´®à´¤": 5569,
      "Ġà´±àµºà´µ": 5570,
      "Ġà´ħà´µà´¶à´¤": 5571,
      "Ġà´µà´³à´ªà´Ł": 5572,
      "Ġ1968": 5573,
      "Ġà´īà´¦à´¯à´¨": 5574,
      "ĠOne": 5575,
      "Ġà´¡à´¸à´¨": 5576,
      "à´°à´ķàµ¾à´ķ": 5577,
      "à´Ĳà´Ĩà´±": 5578,
      "à´²à´¹à´°à´£à´ª": 5579,
      "à´ªà´ķàµ¾": 5580,
      "à´®à´³à´®": 5581,
      "????": 5582,
      "àµĭâĢĭâĢĭ": 5583,
      "Ġà´¤à´±à´ª": 5584,
      "à´¶à´Ńà´°à´£": 5585,
      "à´Ĩà´³": 5586,
      "Ġà´İà´®àµ¼à´ľàµ»à´¸": 5587,
      "âĢįàµįâĢį": 5588,
      "Ġy": 5589,
      "à´ªà´Ĺ": 5590,
      "ĠApril": 5591,
      "à´¯à´ķà´µ": 5592,
      "Ġà´ĩà´«à´ķ": 5593,
      "àµ¼à´¥à´¨": 5594,
      "àµģà´Ĥ.âĢĿ": 5595,
      "Ġ2024": 5596,
      "Ġà´ħà´¯à´ŀ": 5597,
      "à´Łàµ»à´¸": 5598,
      "ect": 5599,
      "à´²à´¨à´Ļ": 5600,
      "à´±à´¦": 5601,
      "Ġ949": 5602,
      "à´µà´²à´¨": 5603,
      "Ġà´ħà´ªà´¹": 5604,
      "à´¸à´®à´°à´¤": 5605,
      "Ġà´¤à´µà´¨": 5606,
      "à´µà´°à´¸": 5607,
      "à´Ĳà´¬": 5608,
      "âĢĮàµį.": 5609,
      "Ġà´ħà´°à´¨": 5610,
      "àµģâĢĭ.": 5611,
      "Ġà´Ĩà´³à´²": 5612,
      "Ġà´¸à´¹à´ķà´°à´£à´®": 5613,
      "à´ħà´µà´¸": 5614,
      "Ġà´¨à´°à´¹à´¤": 5615,
      "à´ķà´¶à´®": 5616,
      "à´®à´±à´ķ": 5617,
      "à´ŀà´µàµ¼à´·": 5618,
      "à´ħà´£": 5619,
      "àµĬ,": 5620,
      "à´¯à´ķà´¯": 5621,
      "à´°à´³à´¯à´¦": 5622,
      "Ġà´ĩà´¶": 5623,
      "Ġà´¡à´ķ": 5624,
      "ran": 5625,
      "à´ķà´µà´¯": 5626,
      "à´°à´µà´¹": 5627,
      "à´ķà´¸à´¨à´ª": 5628,
      "à´Ĩàµ¼à´ª": 5629,
      "à´İà´´": 5630,
      "Ġà´®à´¯à´Ļ": 5631,
      "à´¯à´¶à´°": 5632,
      "à´Łà´±à´²": 5633,
      "Ġà´Ĩàµ¼à´¦": 5634,
      "Ġ149": 5635,
      "àµģàµįâĢĮ": 5636,
      "à´®à´ķà´µ": 5637,
      "à´¨à´ķà´°": 5638,
      "ĠAugust": 5639,
      "à´°à´¸à´¤": 5640,
      "à´ĵà´£": 5641,
      "AT": 5642,
      "ho": 5643,
      "à´«à´¡": 5644,
      "âĢĿ.": 5645,
      "Ġà´µà´°à´ķà´³": 5646,
      "à´İàµ»à´İàµ½": 5647,
      "Ġà´ķà´£à´Ļ": 5648,
      "Ġà´ħàµ¼à´®": 5649,
      "Ġà´µà´°à´®": 5650,
      "à´īà´²": 5651,
      "à´¶à´®à´¨à´¸": 5652,
      "à´ĵàµ¼à´¡": 5653,
      "Ġà´İà´³à´®à´°": 5654,
      "à´¤à´°à´£à´®": 5655,
      "Ġ1974": 5656,
      "à´ŀàµ¾": 5657,
      "Ġ270": 5658,
      "Ġ1952": 5659,
      "ĠIndia": 5660,
      "rom": 5661,
      "Ġ@": 5662,
      "Ġà´®à´¨à´¶": 5663,
      "Ġ20000": 5664,
      "Ġà´µà´´à´±": 5665,
      "à´®à´ķàµ»": 5666,
      "Ġà´ĵà´£à´ª": 5667,
      "Ġà´ķà´°à´µ": 5668,
      "Ġà´ķà´²à´µà´±à´¯": 5669,
      "uc": 5670,
      "Ġà´Ĺà´¸à´±": 5671,
      "Ġ1600": 5672,
      "Ġ133": 5673,
      "ĠQ": 5674,
      "à´µà´±à´²": 5675,
      "à´Ļà´³à´±": 5676,
      "àµ»à´±àµ¼": 5677,
      "à´ķà´³à´®": 5678,
      "à´°à´¹à´°à´®": 5679,
      "Ġà´Ľàµ¼à´¦": 5680,
      "à´µà´ľà´¨à´ªà´ķ": 5681,
      "à´ªàµ¼à´¤": 5682,
      "à´²à´µà´§": 5683,
      "Ġà´¨à´µà´¨": 5684,
      "Ġà´Ĩà´Ńà´°à´£": 5685,
      "à´²à´µà´ķà´°à´®": 5686,
      "à´ŀà´±": 5687,
      "Ġà´¬à´²à´¹": 5688,
      "à´Ĥ''": 5689,
      "à´¨à´¤à´¤": 5690,
      "à´°à´·à´±à´±": 5691,
      "àµ¼à´¬à´±": 5692,
      "Ġ127": 5693,
      "à´ªàµ¼à´Ł": 5694,
      "Ġ1921": 5695,
      "àµ½à´¨à´Łà´¯": 5696,
      "à´¤à´µà´µ": 5697,
      "à´ĩà´²à´ķ": 5698,
      "à´İàµ»à´¡": 5699,
      "àµ»à´¸à´²àµ¼": 5700,
      "Ġà´®àµ»à´®": 5701,
      "Ġà´ļà´®à´ŀ": 5702,
      "à´°à´¯àµ½": 5703,
      "Ġ048": 5704,
      "àµįâĢįàµĩ": 5705,
      "à´¯à´¶à´ķ": 5706,
      "à´²à´Łà´Ļ": 5707,
      "Ġà´±à´¸à´²": 5708,
      "à´īà´³": 5709,
      "ial": 5710,
      "à´¾à´Ĥ!": 5711,
      "à´Łàµ¼à´¨à´Łà´ªà´Ł": 5712,
      "ĠII": 5713,
      "Ġà´ħà´µà´¯à´µà´¦": 5714,
      "à´ľà´Ļ": 5715,
      "Ġï": 5716,
      "à´·à´¤à´®": 5717,
      "Ġà´·à´£": 5718,
      "Ġà´¤à´³àµ¼à´¤": 5719,
      "Ġ210": 5720,
      "ive": 5721,
      "Ġà´¸à´¯àµ»à´¸à´¸": 5722,
      "à´İà´µ": 5723,
      "Ġ155": 5724,
      "àµį'-": 5725,
      "à´ŀà´¤à´µà´£": 5726,
      "à´¡à´¯à´±à´ķ": 5727,
      "à´¹à´¨à´µà´ķ": 5728,
      "Ġà´ķà´¤à´ķ": 5729,
      "Ġ164": 5730,
      "Ġà´®à´°à´¯": 5731,
      "ast": 5732,
      "à´¶à´ľà´¯": 5733,
      "Ġà´ļà´°à´®": 5734,
      "Ġà´īà´·à´¯": 5735,
      "Ġà´ħà´¯àµ¼": 5736,
      "à´®à´°à´£à´ķà´³": 5737,
      "àµĨà´¿.": 5738,
      "à´µà´¯à´¨": 5739,
      "à´®àµ¼à´¶à´¨à´¤": 5740,
      "</": 5741,
      "Ġà´¤à´®à´¨": 5742,
      "Ġ1940": 5743,
      "Ġà´µà´°àµ¾à´ļ": 5744,
      "àµģ,âĢĿ": 5745,
      "Ġ131": 5746,
      "Ġà´ĵà´®à´¨à´ķ": 5747,
      "à®": 5748,
      "Ġ1920": 5749,
      "à´¨à´µà´°à´²": 5750,
      "à´°à´¬à´²": 5751,
      "à´²à´ªà´°": 5752,
      "àµ¯": 5753,
      "à´İàµ½à´¸": 5754,
      "àµ¼à´ĺà´¨": 5755,
      "à´£à´Łà´¯": 5756,
      "àµįâĢĮ'": 5757,
      "Ġà´¦à´¶à´ķ": 5758,
      "ER": 5759,
      "Ġj": 5760,
      "Ġà´¨à´Ĺà´°à´ª": 5761,
      "à´²à´«": 5762,
      "Ġà´±à´¬àµ¼": 5763,
      "Ġà´ĸà´¸": 5764,
      "tive": 5765,
      "à´³à´Ń": 5766,
      "Ġà´ĩà´¹": 5767,
      "Ġ132": 5768,
      "Ġà´ľà´ªà´®": 5769,
      "à´®à´£à´²": 5770,
      "à´µà´¹à´®": 5771,
      "Ġà´°àµº": 5772,
      "àµ¡": 5773,
      "à´·à´¡": 5774,
      "hi": 5775,
      "Ġà´«à´¯": 5776,
      "à´¾âĢĮ": 5777,
      "à´ĩà´Ĵà´¯": 5778,
      "Ġà´Ĺàµ¼à´Ńà´ķ": 5779,
      "à´ªà´ķà´¯": 5780,
      "à´ĸà´Ń": 5781,
      "à´ļà´µà´Łà´®": 5782,
      "Ġà´ıà´±à´¨": 5783,
      "Ġà´µà´ļà´¨à´Ļ": 5784,
      "ĠVI": 5785,
      "à´®à´µà´°": 5786,
      "à´µà´³à´µ": 5787,
      "à´£àµ¾à´¡": 5788,
      "àµºà´¸àµ¼": 5789,
      "ĠLatest": 5790,
      "à´ŀà´¤à´¯": 5791,
      "Ġà´¸à´²à´«": 5792,
      "app": 5793,
      "ĠOnline": 5794,
      "àµĭà´Ĥ.": 5795,
      "à´°à´®à´ķà´°à´®": 5796,
      "Ġà´ħàµ¼à´¹à´®": 5797,
      "ĠJan": 5798,
      "àµį,âĢĻ": 5799,
      "à´ĸà´ķà´°": 5800,
      "Ġ151": 5801,
      "Ġà´Ķà´·à´§à´Ļ": 5802,
      "Ġà´®à´¨à´¯": 5803,
      "ard": 5804,
      "Ġà´®à´¹à´¨": 5805,
      "à´¯à´¤à´¤": 5806,
      "à´«à´Ł": 5807,
      "AN": 5808,
      "à´¯à´ªà´Ļ": 5809,
      "Ġ2023": 5810,
      "ĠDaily": 5811,
      "à´®à´°à´¯": 5812,
      "àµ¼à´¬àµ¼": 5813,
      "à´ļà´²à´¸": 5814,
      ".\"": 5815,
      "àµĨâĢĿ": 5816,
      "Ġà´Ĳà´İà´«": 5817,
      "à´±à´¯à´²": 5818,
      "Ġà´¨à´¡": 5819,
      "Ġ143": 5820,
      "Ġà´¤à´ķà´´": 5821,
      "Ġà´¦àµ½à´¹": 5822,
      "Ġà´¡à´¯à´¸": 5823,
      "à´¯à´®à´¨à´µ": 5824,
      "Ġà´ħà´ĸà´£": 5825,
      "Ġà´µà´¦": 5826,
      "à´£à´ªà´°": 5827,
      "à´²à´¯à´¯": 5828,
      "Ġà´ĵà´Łà´¯": 5829,
      "ĠàµĪ": 5830,
      "Ġà´ĸà´¨à´¨à´¤": 5831,
      "CC": 5832,
      "àµģ.''": 5833,
      "Ġà´ıà´ķà´®": 5834,
      "àµį.....": 5835,
      "Ġà´Łà´¯àµ¼": 5836,
      "Ġà´ħàµ¼à´ļ": 5837,
      "Ġ137": 5838,
      "àµ½à´¸àµº": 5839,
      "Ġhttps": 5840,
      "Ġà´ľà´¨à´°": 5841,
      "Ġ152": 5842,
      "Ġà´ķà´¨à´ķà´¦": 5843,
      "à´°à´ªà´²à´¹": 5844,
      "à´µà´¯à´®": 5845,
      "Ġà´µà´²à´ķ": 5846,
      "Ġ15000": 5847,
      "Ġ139": 5848,
      "à´ķà´³à´Łà´Ļ": 5849,
      "ong": 5850,
      "Ġà´Ĺàµ¼à´Ńà´§": 5851,
      "àµģ';": 5852,
      "àµĩâĢį": 5853,
      "Ġà´Ķà´·à´§à´®": 5854,
      "à´İà´¬": 5855,
      "à´§à´¨à´ķàµ¾à´ķ": 5856,
      "àµĤâĢĻ": 5857,
      "Ġ280": 5858,
      "Ġby": 5859,
      "%,": 5860,
      "Ġà´ıà´¯": 5861,
      "Ġà´ªà´´à´¤": 5862,
      "à´¨à´°à´®": 5863,
      "à´Ńà´°à´®": 5864,
      "Ġà´Ĵà´°à´Ł": 5865,
      "à´°à´µà´Ł": 5866,
      "ĠNext": 5867,
      "à´¯à´£à´ª": 5868,
      "Ġà´īà´®à´±": 5869,
      "à´¯à´®à´ķ": 5870,
      "à´²à´µàµ¼à´·": 5871,
      "Ġà´«à´Įà´±": 5872,
      "Ġà´ķà´²à´Ļ": 5873,
      "Ġà´¸à´®à´°à´ªà´°": 5874,
      "In": 5875,
      "Ġà´®à´¨à´ķ": 5876,
      "Ġà´ªàµ¾à´¸àµ¼": 5877,
      "àµĩ....": 5878,
      "Ġà´Ĩà´¯à´Ļ": 5879,
      "Ġà´®à´°à´ª": 5880,
      "à´¨à´µàµ»": 5881,
      "Ġ1951": 5882,
      "Ġà´¨à´°à´ķà´¤": 5883,
      "Ġà´ĩàµ¼à´«": 5884,
      "ann": 5885,
      "Ġ1966": 5886,
      "Ġà´Ĩà´±à´³": 5887,
      "Ġà´¬à´¹à´±": 5888,
      "à´¸à´µà´µ": 5889,
      "à´Łà´µà´³": 5890,
      "Ġà´¤à´¹": 5891,
      "à´¶à´®à´¦": 5892,
      "Ġà´°à´®à´¯": 5893,
      "àµ¼à´µà´ļ": 5894,
      "à´ĺà´¨à´µ": 5895,
      "Ġà´īà´£àµ¼à´µ": 5896,
      "Ġà´Ĩàµ¼à´¬": 5897,
      "ver": 5898,
      "à´Ĺàµ¾": 5899,
      "à´·à´ķà´¸": 5900,
      "à´ªà´¨à´ķà´³": 5901,
      "à´¯à´±à´µ": 5902,
      "à´°à´³à´¯à´µ": 5903,
      "pl": 5904,
      "à´¯à´ĺ": 5905,
      "à´®à´²à´ķ": 5906,
      "Ġà´¨à´µà´¦": 5907,
      "à´µà´¨à´¦": 5908,
      "à´·à´±à´«": 5909,
      "àµ¼à´£à´¤": 5910,
      "Ġà´ŀà´£": 5911,
      "Ġà´ļà´Łà´¯à´®": 5912,
      "à´ıà´ª": 5913,
      "Ġà´ĩà´Łà´µà´ķà´ķà´³": 5914,
      "àµĭ....": 5915,
      "Ġà´ªà´´à´®": 5916,
      "ai": 5917,
      "Ġà´¯à´¶à´¸": 5918,
      "àµģà´Ĥ.'": 5919,
      "Ġà´ĩà´ľ": 5920,
      "à´¨à´¤à´®": 5921,
      "àµįâĢĮ;": 5922,
      "Ġ148": 5923,
      "àµįâĢĻ;": 5924,
      "à´Ńà´µà´®à´±": 5925,
      "Ġà´īà´Łà´ķ": 5926,
      "à´°à´³à´¯à´®": 5927,
      "Ġà´ľà´¯à´²à´ķ": 5928,
      "à´ªàµ¼à´¸": 5929,
      "Ġà´Ĵà´°à´²": 5930,
      "ttp": 5931,
      "à´²à´Ńà´Ļ": 5932,
      "uk": 5933,
      "à´§à´ļ": 5934,
      "à´¡à´±à´°": 5935,
      "Ġà´īà´®àµ¼": 5936,
      "àµ½à´µà´°": 5937,
      "Ġà´Ĩà´¸à´¨": 5938,
      "à´®à´¤à´µ": 5939,
      "250": 5940,
      "ack": 5941,
      "ry": 5942,
      "à´²à´³": 5943,
      "à´°à´¯à´Ł": 5944,
      "Ġà´İà´¨àµ¼à´ľ": 5945,
      "Ġ.....": 5946,
      "SS": 5947,
      "à´¤à´®à´´à´¯": 5948,
      "à´£à´Ĺ": 5949,
      "à´±à´µà´¨": 5950,
      "à´¸à´¨à´²": 5951,
      "Ġ1955": 5952,
      "ind": 5953,
      "Ġà´¶à´®à´¨à´®": 5954,
      "à´ŀà´¬": 5955,
      "à´ĸà´¬": 5956,
      "à´°à´°à´ļà´¨": 5957,
      "ĠOneindia": 5958,
      "à´¦à´¹": 5959,
      "à´¨à´¤à´²à´¤": 5960,
      "»¿": 5961,
      "à´·à´¯à´®à´²": 5962,
      "Ġ1949": 5963,
      "à´¯à´¹à´¸": 5964,
      "à´ªà´±à´¤": 5965,
      "à´·à´Ł": 5966,
      "Ġà´ķà´Łà´µà´¨": 5967,
      "Ġà´Ĵà´®àµ¼": 5968,
      "150": 5969,
      "à´¤à´ķà´²": 5970,
      "Ġà´®à´°à´®": 5971,
      "Ġà´¬à´²à´ķ": 5972,
      "à´µàµ¼à´·à´Ļ": 5973,
      "Ġ225": 5974,
      "Ġà´ªà´°à´²": 5975,
      "à´ĺàµ¼à´·à´®": 5976,
      "à´ľà´§": 5977,
      "à´²à´®à´±": 5978,
      "àµģ),": 5979,
      "àµĤ-": 5980,
      "à´°à´ļà´¨à´¯": 5981,
      "one": 5982,
      "DF": 5983,
      "ober": 5984,
      ".''": 5985,
      "IN": 5986,
      "ah": 5987,
      "à´¶à´ľ": 5988,
      "Ġ550": 5989,
      "à´¦à´¨àµ»": 5990,
      "Ġà´¶à´µà´ª": 5991,
      "Ġà´ªà´´à´¯à´¨": 5992,
      "à´¦à´¤à´¯": 5993,
      "à´°à´£à´¨": 5994,
      "Ġà´ľà´¨à´¤à´ķ": 5995,
      "Ġà´ķà´µà´²": 5996,
      "à´ľà´¯à´Ĺ": 5997,
      "Ġà´Ĩà´¨à´¤": 5998,
      "Ġà´Ĩàµ¼à´ª": 5999,
      "à´¿!!": 6000,
      "à´¾!": 6001,
      "à´µà´°à´ª": 6002,
      "ide": 6003,
      "à´¯à´¥": 6004,
      "à´¯à´¤à´¨": 6005,
      "à´Ńà´°à´£à´¶": 6006,
      "ĠTh": 6007,
      "à´¸à´¡àµ¼": 6008,
      "Ġà´Ĳà´µ": 6009,
      "àµ¼à´¬à´²": 6010,
      "Ġà´Ĵà´°à´±": 6011,
      "à´ªà´ķàµ½": 6012,
      "à´Łà´Ĺ": 6013,
      "Ġà´®à´¹à´®": 6014,
      "à´¶à´Ń": 6015,
      "Ġà´İà´µà´±à´¸": 6016,
      "à´§à´µà´¯": 6017,
      "Ġà´°à´¸à´®": 6018,
      "à´µà´°à´Łà´ķ": 6019,
      "à´ľà´¯à´¶": 6020,
      "me": 6021,
      "àµģà´Ĥ''": 6022,
      "Ġà´Īà´Ĺ": 6023,
      "Ġà´®à´´à´ª": 6024,
      "Ġdi": 6025,
      "'s": 6026,
      ".),": 6027,
      "Ġà´īà´¯àµ¼à´ļ": 6028,
      "âĢĵà´¾à´Ĥ": 6029,
      "Ġà´ľà´¨à´¦": 6030,
      "Ġà´ħà´²à´µà´¨": 6031,
      "à´µà´¯àµ½": 6032,
      "Ġ147": 6033,
      "Ġà´İàµ½à´ľ": 6034,
      "à´ªà´²à´®": 6035,
      "à´¸à´¹à´ķà´°à´£": 6036,
      "à´¸àµ¼à´ľ": 6037,
      "à´§à´§": 6038,
      "à´Łà´Łà´Ļ": 6039,
      "Ġà´Łà´£à´²": 6040,
      "Ġà´ķà´Łàµ½à´¤": 6041,
      "Ġà´ªà´´à´¯à´Ļ": 6042,
      "Ġà´ķàµ½à´ªà´±": 6043,
      "Ġà´ĵàµ¼à´®à´ķà´³": 6044,
      "à´µà´µàµ¼à´Ĺ": 6045,
      "Ġà´ªà´¯à´°": 6046,
      "à´ĩàµ»": 6047,
      "àµĭ..?": 6048,
      "à´¿.àµĨ": 6049,
      "à´¿âĢĭàµĩ": 6050,
      "à´¿.âĢĭàµĨ": 6051,
      "Ġà´µà´°à´ķ": 6052,
      "à´ĺà´Łà´¨à´ķàµ¾à´ķ": 6053,
      "Ġ049": 6054,
      "ĠOct": 6055,
      "Ġ0471": 6056,
      "à´¤à´¤à´²": 6057,
      "à´ªà´³à´ķ": 6058,
      "à´Łà´¦": 6059,
      "Ġà´ĸà´Ł": 6060,
      "à´¯à´£à´ķ": 6061,
      "Ġ1954": 6062,
      "Ġà´¨àµ¼à´®": 6063,
      "Ġà´ħà´±à´«": 6064,
      "Ġ129": 6065,
      "à´Īà´¸": 6066,
      "Ġ1945": 6067,
      "Ġ1963": 6068,
      "Ġà´ķà´¬à´±": 6069,
      "Ġà´Ĵà´¯": 6070,
      "àµį\",": 6071,
      "à´¯à´ķà´°à´µ": 6072,
      "à´ľà´¦": 6073,
      "Ġà´ķàµ¾": 6074,
      "Ġà´¶à´µ": 6075,
      "à´®à´¤à´ªà´¤": 6076,
      "Ġà´ķà´¨à´²": 6077,
      "à´«à´±à´¸": 6078,
      "Ġà´ħà´®à´°à´ķ": 6079,
      "à´Ļà´ª": 6080,
      "Ġà´¨à´¯à´ªà´°à´®": 6081,
      "Ġà´ĩà´Łà´±": 6082,
      "Ġà´Ĵà´Ĳà´¸": 6083,
      "Ġ1958": 6084,
      "ÙİÙĳ": 6085,
      "Ġà´¤à´°à´£à´®": 6086,
      "à´Ļà´ķ": 6087,
      "à´£à´®à´£": 6088,
      "Ġà´ľà´¨à´µà´°": 6089,
      "à´ķàµ»à´®": 6090,
      "hot": 6091,
      "à´Ļà´²à´¯": 6092,
      "à´¹à´¨à´ªà´°": 6093,
      "Ġà´ķà´®à´²à´¹": 6094,
      ".-": 6095,
      "120": 6096,
      "Ġà´µà´£à´Ļ": 6097,
      "à´Ĥ.'": 6098,
      "à´¤à´¨à´°à´¹": 6099,
      "à´³à´¨à´®": 6100,
      "à´¬à´·": 6101,
      "Ġ1946": 6102,
      "Ġà´ªà´Łàµ¼à´¤": 6103,
      "Ġ182": 6104,
      "à´ķà´¸à´¨à´ķ": 6105,
      "à´ªà´²à´Ļ": 6106,
      "Ġà´¸à´¹à´ķà´°à´£à´¬": 6107,
      "à´Ĩà´µà´¶": 6108,
      "à´²à´¨à´ķ": 6109,
      "à´īà´ª": 6110,
      "Ġà´ļà´°à´®à´µ": 6111,
      "Ġ185": 6112,
      "UV": 6113,
      "à´¦à´°à´ķ": 6114,
      "Ġà´Īà´µ": 6115,
      "Ġà´ªà´£à´¯à´ª": 6116,
      "Ġà´ªà´Łà´Ļ": 6117,
      "à´«àµ½": 6118,
      "à´ķà´¤à´ķ": 6119,
      "à´µà´³àµ¼à´¤": 6120,
      "à´¦à´°à´¯": 6121,
      "Ġà´¶à´®à´¨": 6122,
      "Ġà´®à´¤à´Ń": 6123,
      "Ġà´ĩà´Łà´µà´´": 6124,
      "Ġ134": 6125,
      "à´Ĥ',": 6126,
      "à´¸à´²à´¨": 6127,
      "Ġà´Łà´µàµ¼": 6128,
      "à´¯à´¦àµ¼à´¶àµ»": 6129,
      "Ah": 6130,
      "Ġà´ĩà´³à´¯à´°": 6131,
      "Ġà´Īà´´à´µ": 6132,
      "à´¯à´¨à´¨": 6133,
      "à´¦àµ¼à´Ńà´¤": 6134,
      "Ġ166": 6135,
      "à´Łà´¯à´Ł": 6136,
      "àµĤâĢį": 6137,
      "Ġà´Ĩà´·à´¸": 6138,
      "Ġà´¦à´¯à´¯": 6139,
      "à´°à´ķà´µ": 6140,
      "à´¯à´ªà´±à´®": 6141,
      "Ġà´ħà´²àµ»": 6142,
      "à´¯à´£àµ½": 6143,
      "ite": 6144,
      "à´¨à´ļà´°": 6145,
      "àµ¼à´Ĺà´°": 6146,
      "à´¯à´¨à´¯à´¤": 6147,
      "Ġà´ķà´¬à´¡": 6148,
      ",âĢĿ": 6149,
      "ens": 6150,
      "IC": 6151,
      "àµ»à´¸àµ»": 6152,
      "àµ¼à´£à´±": 6153,
      "àµį.âĢĭ": 6154,
      "à´°à´¯à´µ": 6155,
      "àµ½à´µà´¨": 6156,
      "Ġà´ľà´µà´¹àµ¼à´²": 6157,
      "à´¯à´§à´¨": 6158,
      "Ġà´¬à´¦à´°": 6159,
      "à´®à´¯à´²": 6160,
      "Ġà´µà´³à´®": 6161,
      "à´¤à´Łà´¤": 6162,
      "àµĩâĢĭâĢĭ": 6163,
      "àµĢâĢĭâĢĭâĢĭ": 6164,
      "Ġà´Ĵà´°à´ķ": 6165,
      "à´łà´µ": 6166,
      "Ġ9000": 6167,
      "àµ¼à´£à´²": 6168,
      "àµĭ?'": 6169,
      "Ġà´¤à´Łà´µà´±à´¯": 6170,
      "àµ¼à´ĺà´¦": 6171,
      "la": 6172,
      "Ġà´Ĩà´£à´²": 6173,
      "à´¨à´¯à´ļ": 6174,
      "ĠâĨĳ": 6175,
      "ss": 6176,
      "Ġà´ĩà´´à´¯": 6177,
      "à´Łà´ªà´´à´ķ": 6178,
      "Ġà´ľà´¨à´ªà´Ļ": 6179,
      "Ġà´°à´ľà´¤": 6180,
      "Ġà´¸àµ¼à´¦": 6181,
      "à´¯à´£à´ļ": 6182,
      "Ġà´¯à´Ļ": 6183,
      "à´¤à´®à´¯": 6184,
      "ction": 6185,
      "à´µà´¤à´°à´£": 6186,
      "Ġà´ħà´®àµ½": 6187,
      "ĠOctober": 6188,
      "Ġà´¶àµ¼à´ķ": 6189,
      "à´¯à´ķà´£": 6190,
      "à´¯à´ķàµ¼": 6191,
      "Ġ1400": 6192,
      "à´®à´Łà´¤": 6193,
      "Ġà´Īà´´": 6194,
      "Ġà´ķà´Łàµ½à´ķ": 6195,
      "Ġà´ħà´¹à´®à´¦": 6196,
      "ovid": 6197,
      "%)": 6198,
      "àµ¼à´¡àµ¼": 6199,
      "à´®àµ¼à´¶à´®": 6200,
      "à´ķà´¶à´ķ": 6201,
      "àµģ.....": 6202,
      "Ġà´°à´¥à´¯": 6203,
      "Ġ157": 6204,
      "Ġà´¸àµºà´±": 6205,
      "à´¤à´¨à´°": 6206,
      "à´Ĺà´®à´¨à´Ļ": 6207,
      "Ġ1959": 6208,
      "à´µà´¸à´°à´¤": 6209,
      "à´ķà´ªà´°à´®": 6210,
      "à´ľà´®à´¦": 6211,
      "Ġà´ıàµ½à´ķ": 6212,
      "Ġ204": 6213,
      "à´®à´¤à´²à´ķ": 6214,
      "àµįâĢĮ),": 6215,
      "à´¹à´¤à´ķà´³": 6216,
      "Ġà´Ķà´¡": 6217,
      "àµģâĢį": 6218,
      "àµįâĢį!!": 6219,
      "à´·à´ķà´¤": 6220,
      "Ġà´¬à´µ": 6221,
      "à´µà´°à´£à´µ": 6222,
      "Ġà´¸à´®à´°à´¸": 6223,
      "Ġà´¬à´§": 6224,
      "à´¤à´ķà´¶": 6225,
      "à´¦àµ¼à´¶à´ķàµ¼à´ķ": 6226,
      "Ġà´ħà´µà´°à´¤": 6227,
      "Ġà´ķà´³à´¨": 6228,
      "à´Łà´´": 6229,
      "à´ķàµ¾à´ļ": 6230,
      "à´¨à´ķàµ¾": 6231,
      "Ġà´ħà´ªà´ķà´Łà´¨": 6232,
      "àµ»à´ļ": 6233,
      "à´ķà´²à´°": 6234,
      "ory": 6235,
      "Ġà´ªà´¦à´®": 6236,
      "à´¤à´ķà´ķà´³": 6237,
      "Ġà´ħàµ¼à´§": 6238,
      "Ġà´ªà´ķà´ª": 6239,
      "à´¿';": 6240,
      "Ġà´ªàµ¼à´µà´¤": 6241,
      "Ġà´¦à´¹à´¨à´¤": 6242,
      "à´¸à´¯à´ļ": 6243,
      "à´¤à´«à´¯": 6244,
      "à´ķàµ¼à´£": 6245,
      "à´£àµ»à´ķ": 6246,
      "Ġà´¤à´ŀ": 6247,
      "à´Ļà´³à´¨": 6248,
      "Ġà´ħà´£à´ļ": 6249,
      "Ġà´ıà´´à´°à´¯": 6250,
      "à´ĸà´¦": 6251,
      "à´¤à´¨à´²": 6252,
      "ED": 6253,
      "Ġà´¤à´®à´¸": 6254,
      "à´°à´Ńà´¯": 6255,
      "Ġà´®àµº": 6256,
      "Ġà´Ĩà´£à´¤": 6257,
      "Ġà´ªà´´à´¨": 6258,
      "à´®à´¯à´ķ": 6259,
      "à´±à´ªà´£": 6260,
      "à´¯à´Łà´ļ": 6261,
      "Ġà´īà´ªà´ª": 6262,
      "Ġà´µà´²à´¯à´¤": 6263,
      "Ø±": 6264,
      "Ġà´ªà´Łà´ª": 6265,
      "Ġà´¤à´°à´ķ": 6266,
      "Ġà´µà´°àµ»": 6267,
      "Ġ\"\"": 6268,
      "Ġà´¤à´µà´£à´ķà´³": 6269,
      "ice": 6270,
      "à´µà´¶à´°": 6271,
      "ear": 6272,
      "Ġpro": 6273,
      "Ġà´Ĩà´¸à´ķ": 6274,
      "iss": 6275,
      "à´ªà´±à´ķ": 6276,
      "à´°à´¥à´®à´¦": 6277,
      "Ġà´°à´¥": 6278,
      "àµ½à´ĸà´±": 6279,
      "Ġ141": 6280,
      "à´¦à´¦": 6281,
      "à´ķà´³à´°": 6282,
      "Ġà´«à´ķ": 6283,
      "à´¤à´®àµ»": 6284,
      "àµĤâĢĭâĢĭâĢĭ": 6285,
      "àµ¼à´¡à´¨": 6286,
      "à´¾(": 6287,
      "àµ½à´®à´±": 6288,
      "à´Łà´®à´ķàµ¾": 6289,
      "à´°à´µà´¤à´°à´®": 6290,
      "à´¤à´ķà´¥": 6291,
      "Ġ162": 6292,
      "ase": 6293,
      "à´¿à´Ĥ.": 6294,
      "à´µàµ»à´±": 6295,
      "à´ĩà´¦": 6296,
      "à´¯à´ľà´¨": 6297,
      "à´®à´ł": 6298,
      "Ġà´ħà´Łà´²": 6299,
      "Ġ2025": 6300,
      "à´Łà´®à´£": 6301,
      "Ġà´ļà´°à´£": 6302,
      "Ġà´ķà´®àµ½à´¹": 6303,
      "Ġ260": 6304,
      "AS": 6305,
      "à´Ĥ.âĢĿ": 6306,
      "à´¾àµĨ": 6307,
      "àµĭà´Ĥ:": 6308,
      "Ġà´¶à´°à´µ": 6309,
      "Ġà´ªà´łà´¨à´¸": 6310,
      "2012": 6311,
      "Ġ163": 6312,
      "à´¡àµ»à´·": 6313,
      "Ġà´ĵà´¶": 6314,
      "Ġ330": 6315,
      "Ġà´ĩà´²à´ŀ": 6316,
      "à´ķà´¨à´¤": 6317,
      "Ġà´ıà´²à´ķ": 6318,
      "à´¶à´ķà´²à´¨à´¤": 6319,
      "Ġà´´": 6320,
      "Ġà´Ĥ": 6321,
      "à´ĩà´ŀ": 6322,
      "à´´àµ½à´ª": 6323,
      "Ġà´¸à´Ĺ": 6324,
      "ubl": 6325,
      "à´µà´¤à´Ļ": 6326,
      "àµ½à´ªà´¨à´ķ": 6327,
      "pp": 6328,
      "à´¿âĢĵ": 6329,
      "à´·à´µà´¤": 6330,
      "à´«à´²à´µ": 6331,
      "ĠSo": 6332,
      "àµģ!!": 6333,
      "Ġà´²à´¬à´¨": 6334,
      "à´¤à´°à´µà´¨": 6335,
      "à´Ńà´¨à´¯": 6336,
      "Ġà´ıà´´à´°": 6337,
      "Ġà´µà´¯àµ¼à´²": 6338,
      "aj": 6339,
      "Ġà´µà´¶à´®": 6340,
      "Ġà´µà´ķà´µà´¯": 6341,
      "Ġch": 6342,
      "à´ĺà´ļ": 6343,
      "àµįâĢį,,,": 6344,
      "Ġà´ħàµ½à´®": 6345,
      "à´®à´°à´£à´¤": 6346,
      "Ġà´Ĩàµ½à´ķ": 6347,
      "à´¥à´¨à´ķ": 6348,
      "Ġà´¸à´¹à´ľà´®": 6349,
      "Ġà´Ĭà´´": 6350,
      "Ġ146": 6351,
      "à´ļà´°à´¯": 6352,
      "Ġà´Ĩà´±à´°": 6353,
      "à´Łà´²à´Ļ": 6354,
      "à´¯à´¸à´°": 6355,
      "à´ªà´²à´µà´¯à´²": 6356,
      "Ġï»¿": 6357,
      "à´¾à´ĤâĢĭ": 6358,
      "à´ħà´µàµ¼": 6359,
      "Ġà´µà´«": 6360,
      "à´°à´®à´±": 6361,
      "à´ľàµ¼à´®": 6362,
      "Ġà´īà´Łà´ļ": 6363,
      "2013": 6364,
      "à´¨à´§": 6365,
      "âĢİ": 6366,
      "àµĩ-": 6367,
      "à´§à´°à´£": 6368,
      "Ġà´Ńà´ľà´¨": 6369,
      "àµģàµģ": 6370,
      "Ġà´®à´«": 6371,
      "iz": 6372,
      "à´¯à´®à´¨à´¸": 6373,
      "Ġà´ıà´¤à´±": 6374,
      "à´±à´®à´²": 6375,
      "Ġ156": 6376,
      "à´¤à´ªà´°à´®": 6377,
      "à´¯à´°à´ķ": 6378,
      "Ġà´¨à´¯à´µ": 6379,
      "àµĨ,,,": 6380,
      "à´¯à´ļà´°": 6381,
      "Ġà´¸à´µàµ¼à´£": 6382,
      "Ġà´īà´¦à´¯à´Ń": 6383,
      "âĢĻ-": 6384,
      "à´Ĩàµ¼à´¸": 6385,
      "à´ªà´¨à´¸à´®": 6386,
      "Ġà´®à´¤à´Ĺ": 6387,
      "Ġà´Ńà´µà´¨à´°à´¹": 6388,
      "Ġà´¤à´µà´³": 6389,
      "à´ļà´¤à´ļ": 6390,
      "Ġ215": 6391,
      "Ġà´ħà´¯àµ¼à´²à´£": 6392,
      "à´łà´¶": 6393,
      "à´İàµ»à´¯": 6394,
      "ated": 6395,
      "Ġ154": 6396,
      "à´±à´®à´°": 6397,
      "à´§à´Ĺ": 6398,
      "Ġ188": 6399,
      "Ġ158": 6400,
      "Ġà´®à´´à´®": 6401,
      "ational": 6402,
      "Ġà´Ńà´°à´¦": 6403,
      "à´®à´±à´ŀ": 6404,
      "Ġà´¨à´¨à´ļ": 6405,
      "Ġà´ĵà´£à´µ": 6406,
      "à´°à´Ńà´µà´ķ": 6407,
      "à´ķà´µàµ¼à´Ĺ": 6408,
      "à´¤à´¯à´ķ": 6409,
      "à´ªà´°à´¸": 6410,
      "Ġà´¨à´¯à´°": 6411,
      "àµ¼à´Ńà´¯": 6412,
      "à´²à´¯à´°": 6413,
      "Ġà´Ńà´Ĺà´µà´¦": 6414,
      "AM": 6415,
      "à´¤à´ªà´Ļ": 6416,
      "à´¯à´¸à´®à´°à´¤": 6417,
      "à´¬à´°à´ķ": 6418,
      "à´£à´®à´±": 6419,
      "Ġà´Ĩà´±à´Ł": 6420,
      "Ġ168": 6421,
      "Ġà´µà´ķà´®": 6422,
      "à´«à´²à´¨à´®": 6423,
      "à´ļà´²à´¨à´®": 6424,
      "dian": 6425,
      "à´°à´¥à´¨": 6426,
      "à´µà´²à´¯": 6427,
      "à´¯à´®à´¯": 6428,
      "ma": 6429,
      "Ġà´ªà´Łà´®": 6430,
      "Ġà´ĩà´İà´¸": 6431,
      "àµ»à´ªà´¨": 6432,
      "à´¤à´µà´¸": 6433,
      "àµ¼à´²à´±": 6434,
      "Ġà´¤à´Łà´¯à´²": 6435,
      "Ġà´ªà´¯à´¸": 6436,
      "Ġà´¸à´®à´°à´°": 6437,
      "ĠEn": 6438,
      "Ġà´ħàµ¼à´£à´¬": 6439,
      "à´Ĺà´¬à´²": 6440,
      "à´®à´¨à´ª": 6441,
      "àµĨâĢį": 6442,
      "àµģà´Ĥ!!": 6443,
      "à´Ńà´ķà´¨": 6444,
      "Ġà´ĩà´³à´®": 6445,
      "Ġà´ĵà´£à´®": 6446,
      "à´·à´£à´ªà´¦": 6447,
      "ĠFe": 6448,
      "à´°à´ļà´°à´£à´®": 6449,
      "à´¬à´ļ": 6450,
      "à´¸à´°à´¶": 6451,
      "Ġà´§à´®à´¨": 6452,
      "Ġà´İàµ»à´ķ": 6453,
      "à´¨à´¯à´ķ": 6454,
      "Ġà´ħà´Ńà´¯à´¯": 6455,
      "Ġà´ħà´ªà´Ĺ": 6456,
      "pm": 6457,
      "à´Ĺà´²à´ª": 6458,
      "ĠĠĠĠĠĠĠĠĠ": 6459,
      "Ġcom": 6460,
      "à´µà´µà´¤": 6461,
      "à´¸à´ªà´°": 6462,
      "Ġà´ļà´²à´¨à´®": 6463,
      "Ġà´ķà´®à´²à´¯": 6464,
      "à´ľà´¨à´¸": 6465,
      "à´¸à´¨à´Ļ": 6466,
      "Ġ00": 6467,
      "à´¯à´ķàµ¾à´ķ": 6468,
      "à´ªà´·": 6469,
      "àµģà´Ĥ),": 6470,
      "àµĤ:": 6471,
      "Ġà´İà´°à´ŀ": 6472,
      "Ġà´īà´Łàµ»à´¤à´¨": 6473,
      "à´µà´°à´¤à´¯": 6474,
      "Ġà´Ĳà´İàµ»": 6475,
      "Ġà´ªà´¦à´ª": 6476,
      "Ġ^": 6477,
      "Ġà´Ĩàµ¼à´¸": 6478,
      "Ġwith": 6479,
      "ĠIS": 6480,
      "Ġ1953": 6481,
      "Ġà´ħàµ½à´¬": 6482,
      "à´Ĥ'.": 6483,
      "Ġà´İàµ»à´İ": 6484,
      "à´ªàµ¼à´¹": 6485,
      "à´°à´¤à´µ": 6486,
      "à´·à´®à´²": 6487,
      "Ġà´¤à´°à´®": 6488,
      "à´ĤâĢĻ.": 6489,
      "Ġà´ĩà´°à´®": 6490,
      "à´µà´±à´Ł": 6491,
      "esh": 6492,
      "à´¨àµ¼à´µ": 6493,
      "à´®à´ķà´¤": 6494,
      "àµĭ(": 6495,
      "sc": 6496,
      "att": 6497,
      "à´¨à´°à´µà´°": 6498,
      "à´Łà´°à´ķ": 6499,
      "Ġà´ħà´¸à´°": 6500,
      "à´¹à´¨à´¯": 6501,
      "à´¸à´µà´¨": 6502,
      "à´Ĺà´Ł": 6503,
      "à´Ĺà´®à´Ļ": 6504,
      "à´¾âĢĭàµĨ": 6505,
      "Ġà´ĵàµ¼à´¡à´±": 6506,
      "ĠÂ°": 6507,
      "Ġà´ħà´ªà´ķà´Łà´µ": 6508,
      "able": 6509,
      "ge": 6510,
      ")-": 6511,
      "ram": 6512,
      "àµį_": 6513,
      "Ġà´¸à´§": 6514,
      "à´ľà´£à´²": 6515,
      "à´«à´ķ": 6516,
      "à´łà´¨à´¤": 6517,
      "Ġ310": 6518,
      "Ġà´§à´¨à´µ": 6519,
      "Ġà´ĵàµ¼à´Ĺ": 6520,
      "à´¸à´±à´Ĺ": 6521,
      "Ġà´ķà´µà´°à´¤": 6522,
      "à´¯à´£à´¯": 6523,
      "Ġà´µà´°à´¦": 6524,
      "à´¤à´²à´ª": 6525,
      "JP": 6526,
      "à´¤àµ»à´ª": 6527,
      "Ġà´Ĺà´¸à´²": 6528,
      "Ġà´Ĩà´´à´µ": 6529,
      "Ġà´®à´°à´£à´®à´Łà´¯": 6530,
      "Ġà´īà´Łà´¯": 6531,
      "à´µàµ»à´·àµ»": 6532,
      "Ġà´°à´¸à´ķà´°à´µ": 6533,
      "à´ķà´ķà´°à´®": 6534,
      "à´²à´°à´¯": 6535,
      "à´µà´°à´ŀ": 6536,
      "ies": 6537,
      "à´°à´£à´®à´²": 6538,
      "à´ħà´«": 6539,
      "à´¨à´®à´¨à´¸": 6540,
      "ĠJanuary": 6541,
      "à´°à´®à´«à´²à´®": 6542,
      "Ġà´ĵà´¤": 6543,
      "Ġà´ħà´ªàµ¼à´£": 6544,
      "à´Ĩà´Ł": 6545,
      "à´ĩà´®": 6546,
      "ĠRs": 6547,
      "Ġmore": 6548,
      "à´¨à´±à´²": 6549,
      "à´¾....": 6550,
      "à´´à´ķàµ¾": 6551,
      "àµºà´¸à´²": 6552,
      "ĠCO": 6553,
      "àµĭ...?": 6554,
      "à´ħà´¹à´®": 6555,
      "à´¸à´²à´±": 6556,
      "à´Ńà´¨à´®": 6557,
      "Ġà´¯à´®à´¹": 6558,
      "à´Łà´±à´¯": 6559,
      "Ġ176": 6560,
      "Â°": 6561,
      "Ġà´ªà´°à´¦": 6562,
      "Ġà´¹à´¡": 6563,
      "Ġà´ĸà´®": 6564,
      "Ġà´¸à´Ńà´ķ": 6565,
      "ian": 6566,
      "à´Ļà´±": 6567,
      "Ġ1100": 6568,
      "Ġ169": 6569,
      "Ġà´®àµ½à´¸à´°à´¤": 6570,
      "à´®à´ļà´°": 6571,
      "à´®à´ľà´ª": 6572,
      "Ġà´¨à´ŀ": 6573,
      "Ġà´ĵà´µà´²": 6574,
      "à´¨à´¯àµ»": 6575,
      "Ġà´Ĩà´°à´µ": 6576,
      "à´ľà´¡": 6577,
      "Ġà´ħà´®àµ¼": 6578,
      "à´·à´®à´Ļ": 6579,
      "Ġà´İàµ½à´ª": 6580,
      "àµ¼à´£à´°": 6581,
      "à´ļà´¶à´ķ": 6582,
      "Ġ1300": 6583,
      "oun": 6584,
      "à´¨à´¤à´Łà´µ": 6585,
      "à´ĩà´İà´¸": 6586,
      "Ġà´¬à´¹à´¨": 6587,
      "àµ¼à´·àµ»": 6588,
      "àµ¼à´Ĺà´µ": 6589,
      "à´°à´£à´µà´°": 6590,
      "2011": 6591,
      "Ġà´ªà´´à´µà´°": 6592,
      "à´¹à´¸à´¨": 6593,
      "Ġ480": 6594,
      "ld": 6595,
      "Ġà´Ĵà´İà´¸": 6596,
      "à´°à´µà´ķ": 6597,
      "à´³à´µà´³": 6598,
      "à´´à´¯à´Łà´ķ": 6599,
      "Ġà´°à´ļà´¨à´ķàµ¾": 6600,
      "à´¨à´µà´¶": 6601,
      "à´Łà´®à´¤": 6602,
      "à´²à´±à´Ļ": 6603,
      "à´¶à´ªà´¤": 6604,
      "àµ¼à´£àµ½": 6605,
      "à´°à´ķà´£": 6606,
      "à´ĺà´µà´¤": 6607,
      "à´¤à´µà´³": 6608,
      "à´µà´ªà´°à´®": 6609,
      "Ġà´¬àµ¼à´®": 6610,
      "à´µà´°à´°": 6611,
      "à´¨à´¸àµ¼à´ķ": 6612,
      "Ġà´ĩà´³à´¯à´®": 6613,
      "The": 6614,
      "à´ķà´¨à´¯": 6615,
      "à´¯à´«": 6616,
      "Ġà´Ĩàµ¾à´Ł": 6617,
      "Ġà´Ńà´¸": 6618,
      "Ġà´ħà´ľà´¯à´¨": 6619,
      "Ġà´¨àµ½à´ķà´°": 6620,
      "Ġà´īà´°à´¸": 6621,
      "à´¨à´µà´µ": 6622,
      "Ġà´ĩà´µà´ķ": 6623,
      "à´°à´¹à´ª": 6624,
      "Ġà´ķà´¦": 6625,
      "à´ĸà´¨à´®": 6626,
      "Ġà´Ńà´°à´£à´ª": 6627,
      "à´²à´¡à´²": 6628,
      "à´Ńà´ķà´¤": 6629,
      "àµ¾à´ľ": 6630,
      "à´±àµ½à´¸": 6631,
      "à´£à´¯à´µ": 6632,
      "Ġà´ħà´Ĺà´³": 6633,
      "Ġà´¸à´¹à´ķà´°à´£à´¸": 6634,
      "Ġà´ħàµ»à´µà´±": 6635,
      "à´°à´ľà´¨à´¨": 6636,
      "à´¯à´¯à´Łà´ķ": 6637,
      "Ġà´ıà´ķà´ķà´£": 6638,
      "à´ľà´¨à´¤à´¯": 6639,
      "AP": 6640,
      "à´µà´¤à´¸": 6641,
      "Ġ999": 6642,
      "Ġà´¸à´¬à´°": 6643,
      "Ġà´ļà´¹": 6644,
      "Ġà´Ĩà´ķà´£à´®": 6645,
      "Ġà´¬àµ¾à´¬": 6646,
      "à´¯à´®à´¨à´®": 6647,
      "à´Łà´®à´¸": 6648,
      "Ġà´®à´¯à´ª": 6649,
      "à´·à´£à´¸à´®": 6650,
      "\")": 6651,
      "499": 6652,
      "Ġà´ķà´±à´ª": 6653,
      "à´¦à´ķà´³": 6654,
      "àµ½à´Ń": 6655,
      "Ġ390": 6656,
      "Ġà´ħà´µà´±": 6657,
      "à´°à´¶à´ķ": 6658,
      "Ġ171": 6659,
      "à´Ļà´³à´¤": 6660,
      "à´¬à´Ł": 6661,
      "Ġà´¦à´µ": 6662,
      "__": 6663,
      "Ġal": 6664,
      "Ġà´Ĳà´Ĩà´°": 6665,
      "à´¬à´³": 6666,
      "Ġà´®à´´à´¯à´¤": 6667,
      "Ġà´ıà´Ļ": 6668,
      "Ġ167": 6669,
      "à´¤àµ¼à´²": 6670,
      "à´Łà´µà´Ł": 6671,
      "à´µà´°à´ļ": 6672,
      "Ġ219": 6673,
      "Ġ4500": 6674,
      "ight": 6675,
      "à´£à´®à´²": 6676,
      "Ġà´ħà´¯àµ¼à´²": 6677,
      "àµĭ?.": 6678,
      "à¦": 6679,
      "à´ªà´£à´¯": 6680,
      "à´ħà´±à´¬": 6681,
      "Ġà´®àµ¼à´ķ": 6682,
      "Ġà´Ĩà´¶à´¯à´ªà´°à´®": 6683,
      "Ġà´µà´³à´ķ": 6684,
      "à´²à´±à´¯à´²": 6685,
      "àµĭ?âĢĿ": 6686,
      "Ġà´ļà´µà´ļ": 6687,
      "à´Ĩà´§": 6688,
      "Ġ-à´¾à´Ĥ": 6689,
      "à´¯à´¯à´²": 6690,
      "Ġ178": 6691,
      "Ġà´®àµºà´¸": 6692,
      "à´ķà´«": 6693,
      "à´¸à´®à´¯à´Ļ": 6694,
      "à´²à´±à´ķ": 6695,
      "à´¦à´¯à´ķ": 6696,
      "Ġà´¹àµ¼à´¦": 6697,
      "à´ľà´¨à´±": 6698,
      "Ġ177": 6699,
      "ĠSam": 6700,
      "Ġà´¦à´¶à´ķà´Ļ": 6701,
      "à´¸à´ªà´¦": 6702,
      "Ġà´Łàµ¼à´ķ": 6703,
      "Ġà´ħà´®à´¨": 6704,
      "Ġà´ķà´µà´Ł": 6705,
      "Ġà´ħà´¤à´Ļ": 6706,
      "Ġ420": 6707,
      "à´ĩà´·": 6708,
      "Ġkerala": 6709,
      "per": 6710,
      "Ġà´¸à´¹à´¨": 6711,
      "Ġà´¤à´£àµ½": 6712,
      "à´Ńà´¨à´¤": 6713,
      "à´¿.),": 6714,
      "à´°à´¸à´¯": 6715,
      "Ġà´µà´²à´ļ": 6716,
      "à´ĤâĢĻ;": 6717,
      "ace": 6718,
      "à´¨à´Łà´ª": 6719,
      "à´Łà´¨à´ļ": 6720,
      "Ġà´¤à´±à´ļ": 6721,
      "Ġà´İàµ½à´¦": 6722,
      "Ġà´ªà´°à´µà´¤": 6723,
      "à´°à´ķà´²à´¯": 6724,
      "Ġ365": 6725,
      "Ġà´Ĺà´ª": 6726,
      "à´ķà´±à´Ļ": 6727,
      "Ġà´²à´¯à´¨à´¤": 6728,
      "à´·à´Ĺ": 6729,
      "àµģ.)": 6730,
      "àµģà´Ĥ.âĢĻ": 6731,
      "Ġà´ĸà´¬à´°": 6732,
      "à´¸à´«à´°": 6733,
      "à´¦à´¸à´¨": 6734,
      "à´·à´£à´®à´²": 6735,
      "à´¡à´ªà´ķà´Łà´Ļ": 6736,
      "Ġà´ħà´¤à´±": 6737,
      "à´¨à´µà´¸": 6738,
      "à´·à´§": 6739,
      "à´Łà´±àµ½": 6740,
      "Ġà´¨àµ½à´ķà´ª": 6741,
      "Ġà´Ĳà´Ĵà´İà´¸": 6742,
      "Ġ1700": 6743,
      "ĠMan": 6744,
      "Ġà´®à´¦àµ¼": 6745,
      "àµĬà´Ĥ": 6746,
      "Ġ205": 6747,
      "à´Ĺà´£à´Ļ": 6748,
      "Ġà´ļà´²à´¨à´¤": 6749,
      "à´¤à´Łà´µ": 6750,
      "Ġà´ħàµ¼à´¹à´¨": 6751,
      "à´®à´°à´£à´µ": 6752,
      "à´µàµº": 6753,
      "à´Łà´ªà´±à´¯": 6754,
      "âĢĮ,": 6755,
      "ord": 6756,
      "Ġà´Ĵà´¹": 6757,
      "à´°à´ªà´°à´µ": 6758,
      "à´±à´¸à´¯": 6759,
      "Ġà´µà´Łà´¶": 6760,
      "Ġà´¦à´¹à´¨à´ª": 6761,
      "à´ªà´ľ": 6762,
      "à´ªà´¸à´®à´¯à´¤": 6763,
      "Ġà´·à´¨": 6764,
      "à´®à´¶à´ķ": 6765,
      "Ġà´ªà´¥": 6766,
      "àµĭ\"": 6767,
      "2000": 6768,
      "na": 6769,
      "à´Łà´°à´µ": 6770,
      "à´°à´¸à´µà´µ": 6771,
      "Ġà´ħà´®à´²à´¯": 6772,
      "Ġ1942": 6773,
      "Ġ!!!": 6774,
      "à´Ńà´°à´£à´µ": 6775,
      "à´°à´¤à´°": 6776,
      "Ġ161": 6777,
      "Ġà´Ĺà´µàµ¼à´£àµ¼à´ķ": 6778,
      "à´µà´¤à´ķà´³": 6779,
      "à´®à´¤à´²à´ķàµ¾": 6780,
      "à´ķà´¤à´°": 6781,
      "à´®à´±à´¸": 6782,
      "Ġ173": 6783,
      "à´¿âĢįâĢĭàµĨ": 6784,
      "à´±àµ¼à´ķ": 6785,
      "Ġà´¸à´®àµ¼à´¤": 6786,
      "à´¤à´²à´¸": 6787,
      "Ġ1934": 6788,
      "ence": 6789,
      "à´³àµ¼à´ļ": 6790,
      "Ġà´§à´¨à´ŀ": 6791,
      "NEWS": 6792,
      "Ġà´ĩà´³à´¨": 6793,
      "à´¹à´Ń": 6794,
      "Ġà´Ĵà´ŀ": 6795,
      "à´ķà´¥à´ķàµ¾": 6796,
      "350": 6797,
      "à´·à´µà´°": 6798,
      "Ġ184": 6799,
      "Ġà´ķàµºà´¸àµ¼à´µ": 6800,
      "à´¨à´¤à´±": 6801,
      "àµģà´Ĥ';": 6802,
      "à´¯à´®à´¸à´¹": 6803,
      "Ġ179": 6804,
      "à´ªà´µà´ķ": 6805,
      "à´¬à´¡": 6806,
      "à´Łà´¤à´¯": 6807,
      "à´°à´¸à´®à´°": 6808,
      "à´Łà´ķà´ª": 6809,
      "à´°à´Ńà´°": 6810,
      "ood": 6811,
      "Ġà´¤à´´à´ļ": 6812,
      "Ġà´ĩàµ¼à´·": 6813,
      "act": 6814,
      "Ġàµģ": 6815,
      "à´³àµ¼à´¨": 6816,
      "Ġà´ľàµ»": 6817,
      "Ġà´ªà´±à´¶": 6818,
      "Ġà´¬à´¹à´¦": 6819,
      "ok": 6820,
      "Ġ174": 6821,
      "à´ŀà´¯à´ļ": 6822,
      "MI": 6823,
      "à´İà´Ĳ": 6824,
      "à´¿âĢĭ.": 6825,
      "Ġà´®à´²à´ŀ": 6826,
      "Ġ187": 6827,
      "à´³à´®à´¨": 6828,
      "Ġà´ķà´¬à´¨": 6829,
      "Ġà´°à´¹à´¨": 6830,
      "Ġle": 6831,
      "Ġ172": 6832,
      "à´®à´³à´¤": 6833,
      "à´ħà´´": 6834,
      "à´®à´¯à´ļ": 6835,
      "Ġà´ľà´²à´Ĺà´¤": 6836,
      "Ġà´ħàµ½à´ĸ": 6837,
      "à´£à´ªà´°à´®": 6838,
      "à´¤à´¯à´²": 6839,
      "à´ŀà´ļ": 6840,
      "à´·à´£à´ļ": 6841,
      "Ġà´ħà´¸à´¹à´¨": 6842,
      "Ġà´Ńà´°à´£à´ªà´°à´®": 6843,
      "àµįà´¿": 6844,
      "à´¯à´Łà´¯": 6845,
      "à´Ĺàµ»à´µ": 6846,
      "à´ıà´ķ": 6847,
      "à´µà´ķà´¨": 6848,
      "à´ļàµ¼à´®": 6849,
      "à´¦àµ½à´¹": 6850,
      "à´ľà´¯à´¶à´¤à´®": 6851,
      "à´ĤâĢĻ,": 6852,
      "à´¦à´¯à´ª": 6853,
      "à´¬à´°à´µ": 6854,
      "Ġà´¹à´°à´®": 6855,
      "acc": 6856,
      "à´ľà´¯à´¦à´¶à´®": 6857,
      "==": 6858,
      "ool": 6859,
      "à´ķà´°à´ķà´³": 6860,
      "Ġà´«à´¹": 6861,
      "ach": 6862,
      "àµ¼à´¥à´®": 6863,
      "Ġ399": 6864,
      "Ġà´ħà´£à´²": 6865,
      "Ġ234": 6866,
      "Ġà´ħàµ¼à´§à´¸": 6867,
      "àµĩ;": 6868,
      "àµĢâĢį": 6869,
      "Ġà´ļàµ¼à´®à´¤": 6870,
      "à´ªà´£àµ¼": 6871,
      "Ġà´¸à´µàµ¼à´ķ": 6872,
      "à´¹à´Ł": 6873,
      "Ġà´·à´¹à´¬": 6874,
      "Ġà´¦à´¶à´ķà´¤": 6875,
      "à´§à´µà´ķà´³": 6876,
      "à´µà´°à´¹": 6877,
      "à´¯à´ªà´°à´µ": 6878,
      "à´ķà´²à´Ļ": 6879,
      "à´£à´ķàµ¾": 6880,
      "à´¶à´Ĺ": 6881,
      "à´İà´İà´¸": 6882,
      "Ġà´«à´Ł": 6883,
      "à´µà´¨à´Łà´¨": 6884,
      "Ġà´¸à´¹à´²": 6885,
      "ash": 6886,
      "à´ļà´µà´Łà´µ": 6887,
      "à´ķà´°à´£à´ª": 6888,
      "à´Ĩà´Ń": 6889,
      "Ġà´¡à´Ĺ": 6890,
      "à´¯à´ķà´±": 6891,
      "Ġà´Ĩà´±à´°à´¯": 6892,
      "à´Ľà´¤": 6893,
      "Ġ186": 6894,
      "à´°à´ļà´°à´£à´µ": 6895,
      "Ġà´«à´²à´µà´¤": 6896,
      "à´µà´µà´²": 6897,
      "àµĤ!": 6898,
      "ĠâĢĺâĢĻ": 6899,
      "Ġà´ķà´Łà´µà´¤": 6900,
      "ons": 6901,
      "àµ¿": 6902,
      "Ġ202": 6903,
      "Ġ720": 6904,
      "à´¤àµº": 6905,
      "àµ¼à´±": 6906,
      "à´¦à´°à´¬": 6907,
      "Ġà´ĩà´£à´¯": 6908,
      "Ġà´¸à´¹à´µ": 6909,
      "àµĨàµģà´Ĥ": 6910,
      "àµĨ),": 6911,
      "ref": 6912,
      "à´µà´¨à´ª": 6913,
      "Ġà´ıà´µàµ¼à´ķ": 6914,
      "à´·à´ļ": 6915,
      "à´¯à´¸à´¹à´ľà´®": 6916,
      "Ġà´¨à´°à´ļ": 6917,
      "Ġà´īà´²à´ļ": 6918,
      "=\"": 6919,
      "à´ªà´ļà´¯": 6920,
      "Ġà´ªà´¯àµ¼": 6921,
      "Ġà´İà´Ĩà´°": 6922,
      "àµįâĢĮâĢĻ": 6923,
      "ev": 6924,
      "à´²à´§à´¨à´¤": 6925,
      "à´Ĺà´°à´®": 6926,
      "à´°à´ªà´¦": 6927,
      "à´Ĩàµ¼à´Ĵ": 6928,
      "à´ķà´¸à´¹": 6929,
      "ock": 6930,
      "-à´¾âĢį": 6931,
      "à´¨à´¤à´°à´¤": 6932,
      "à´¯à´®à´ªà´°": 6933,
      "à´°à´¬à´²à´®": 6934,
      "à´ĭ": 6935,
      "à´¨à´²à´µà´§": 6936,
      "à´®à´±à´¨": 6937,
      "à´·à´¸à´¨": 6938,
      "Ġà´Ĵà´İà´¨": 6939,
      "Ġà´ħà´±à´ª": 6940,
      "à´¸à´®à´²": 6941,
      "àµį.-": 6942,
      "Ġà´¸à´°à´¯": 6943,
      "àµ¼à´¶à´¯": 6944,
      "à´°à´Ńà´®": 6945,
      "à´²à´ªà´¤": 6946,
      "Ġà´ķà´ħ": 6947,
      "Ġà´Īà´ķ": 6948,
      "à´¬à´²à´°": 6949,
      "à´°à´¸à´µà´¶": 6950,
      "Ġ221": 6951,
      "à´°à´£à´¯à´¬à´¨": 6952,
      "àµįâĢĻ-": 6953,
      "Ġà´ĩà´Łà´®à´²à´¯": 6954,
      "cl": 6955,
      "à´İà´£": 6956,
      "Ġà´°à´ľà´ª": 6957,
      "ĠNov": 6958,
      "Ġà´ĺà´Łà´ķà´ķ": 6959,
      "à´¾à´Ĥ....": 6960,
      "Ġ159": 6961,
      "Ġà´ħà´ķà´®à´´": 6962,
      "à´¨à´Ĺà´°à´¤": 6963,
      "LA": 6964,
      "à´ķà´¸à´Ńà´¯": 6965,
      "à´İàµ»à´ľ": 6966,
      "ae": 6967,
      "à´°à´¹à´£à´µ": 6968,
      "Ġ213": 6969,
      "Ġà´Ĩà´ķà´£": 6970,
      "Ġà´¸à´°à´¸à´«à´²à´Ļ": 6971,
      "Ġà´ħà´¯àµ¼à´²àµ»à´¡": 6972,
      "à´¤à´ķà´ª": 6973,
      "Ġà´ĸà´·": 6974,
      "à´¸à´®à´¯à´µ": 6975,
      "Ġ189": 6976,
      "ĠDec": 6977,
      "Ġ1936": 6978,
      "Ġà´¨à´µà´µà´§": 6979,
      "Ġà´ªà´´à´µ": 6980,
      "Ġà´§à´¨à´¶": 6981,
      "Ġà´ľà´Ł": 6982,
      "ĠSoC": 6983,
      "à´Ĺà´¦à´°": 6984,
      "2010": 6985,
      "à´¹à´°àµ»": 6986,
      "Ġà´®àµ¼à´¦à´¨à´®": 6987,
      "Ġà´ħàµ¼à´¬àµ»": 6988,
      "à´ªà´ķà´°à´£": 6989,
      "à´³àµ¼à´ª": 6990,
      "à´²à´ķà´®": 6991,
      "à´¯à´µàµ¼à´¦": 6992,
      "àµįâĢį):": 6993,
      "Ġ850": 6994,
      "à´¿',": 6995,
      "à´®àµ¼à´¦à´¤": 6996,
      "à´°à´ķàµ»": 6997,
      "Ġà´ĵà´¨": 6998,
      "Ġ380": 6999,
      "à´µà´²à´ķ": 7000,
      "à´ĸà´°à´µ": 7001,
      "à´µà´±àµ»à´¸": 7002,
      "ðŁĺ": 7003,
      "Ġà´İà´Ĳ": 7004,
      "PM": 7005,
      "à´°à´Ĺà´²": 7006,
      "Ġ302": 7007,
      "Ġ{": 7008,
      "Ġà´¸àµ¾à´«": 7009,
      "àµģà´Ĥ.''": 7010,
      "Ġ325": 7011,
      "Ġex": 7012,
      "out": 7013,
      "Ġà´ªà´¤à´¨": 7014,
      "àµ¼à´ĺà´µ": 7015,
      "Ġ224": 7016,
      "Ġà´ħàµº": 7017,
      "à´³à´³à´¯": 7018,
      "à´ĵà´¯": 7019,
      "à´ķà´ķàµ¾à´ķ": 7020,
      "Ġ191": 7021,
      "Ġà´ªà´°à´®à´ª": 7022,
      "Ġà´Ĺàµ¼à´Ńà´ª": 7023,
      "Ġà´¨à´Ĺà´°à´®à´§": 7024,
      "à´Ńà´Ľ": 7025,
      "à´¯à´±àµ»à´¸": 7026,
      "Ġà´¤à´²à´¯à´±": 7027,
      "à´¨à´Ĺà´¨": 7028,
      "âĢ²": 7029,
      "à´·à´°à´¤à´¯": 7030,
      "Ġà´Ĩà´´à´Ļ": 7031,
      "à´ļà´²à´ļ": 7032,
      "à´ŀà´¤à´²": 7033,
      "à´Ĩà´®": 7034,
      "Ġà´µà´¯à´²à´±": 7035,
      "ĠPro": 7036,
      "à´±à´µà´¤": 7037,
      "Ġà´±à´¬à´±": 7038,
      "ult": 7039,
      "à´²à´£à´®": 7040,
      "àµºà´¸à´¨": 7041,
      "ĠNEWS": 7042,
      "olog": 7043,
      "Ġhttp": 7044,
      "à´Ńà´¨à´Ļ": 7045,
      "Ġà´ļà´µà´±à´¯": 7046,
      "Ġ251": 7047,
      "à´¤à´¯à´¤": 7048,
      "à´®àµºà´¸": 7049,
      "Ġà´ľà´¯à´¯": 7050,
      "à´īà´¯à´°": 7051,
      "bruary": 7052,
      "man": 7053,
      "à´·à´µà´¸": 7054,
      "Ġà´İà´Ĳà´İà´¸": 7055,
      "à´§à´ªà´°": 7056,
      "Ġ181": 7057,
      "Ġà´¬à´¶": 7058,
      "àµįâĢĭ;": 7059,
      "Ġbe": 7060,
      "ya": 7061,
      "à´·àµ¼à´Ł": 7062,
      "à´¹à´²à´Ļ": 7063,
      "à´¦à´®à´²": 7064,
      "Ġor": 7065,
      "Ġà´¸à´³": 7066,
      "à´¶à´Ńà´°": 7067,
      "Ġà´Ĩà´¨à´®": 7068,
      "à´ĺà´Łà´ķ": 7069,
      "âĢĮ.": 7070,
      "Ġà´«à´²à´ķà´µ": 7071,
      "SA": 7072,
      "à´ªà´´à´¯": 7073,
      "à´ħà´Ĺ": 7074,
      "ĠAM": 7075,
      "ĠXUV": 7076,
      "à´Ĺà´£à´ªà´¤": 7077,
      "Ġà´ıà´ķà´ľ": 7078,
      "ks": 7079,
      "air": 7080,
      "Ġà´ķà´¹": 7081,
      "à´·à´ķà´µ": 7082,
      "Ġà´ĩàµ½": 7083,
      "à´ķà´¯à´ķ": 7084,
      "à´°à´µà´ķà´°à´®": 7085,
      "Ġà´ªà´¤à´¨à´¤": 7086,
      "à´ļà´ķàµ»": 7087,
      "à´¸àµ¾à´Ł": 7088,
      "Ġà´¶à´¹": 7089,
      "àµįàµįàµį": 7090,
      "Ġà´ªà´£à´®à´Łà´¯": 7091,
      "à´¹à´¸à´®": 7092,
      "Ġ1924": 7093,
      "à´īà´ªà´¯": 7094,
      "à´°à´¹à´¸à´¨à´®": 7095,
      "Ġ245": 7096,
      "Ġ??": 7097,
      "}}": 7098,
      "à´´à´¶": 7099,
      "àµįâĢĮ..": 7100,
      "à´¿,,,": 7101,
      "Ġ206": 7102,
      "à´°à´·àµ¼": 7103,
      "à´µà´ľà´¨à´ķ": 7104,
      "Ġà´¸à´¹à´¤à´Łà´µ": 7105,
      "Ġà´ľà´¨à´¯": 7106,
      "Ġà´ĵàµ¼à´®à´ķàµ¾": 7107,
      "720": 7108,
      "Ġà´ķà´°àµº": 7109,
      "à´§à´¨à´¸": 7110,
      "à´ıà´·": 7111,
      "Hz": 7112,
      "ĠFebruary": 7113,
      "AD": 7114,
      "Ġà´¸à´¹à´¨à´Łà´¨": 7115,
      "àµ¾à´µà´´": 7116,
      "à´Ńà´µà´¦": 7117,
      "Ġà´²à´µà´£": 7118,
      "à´µà´¯à´Łà´ķ": 7119,
      "Ġ192": 7120,
      "à´ĩà´ĩ": 7121,
      "Ġà´Ķà´·à´§à´Ĺ": 7122,
      "Ġà´¨à´°à´µ": 7123,
      "àµģà´Ĥ,âĢĿ": 7124,
      ");": 7125,
      "à´Ĺà´¤à´°": 7126,
      "lection": 7127,
      "à´®à´³à´¯": 7128,
      "ĠĠĠĠĠĠ": 7129,
      "750": 7130,
      "Ġà´ªàµ¾à´¸": 7131,
      "Ġà´ļà´¹à´²": 7132,
      "à´ªà´¨à´ļ": 7133,
      "à´ªà´µà´´": 7134,
      "à´£àµ¼à´¨": 7135,
      "àµįâĢĭ-": 7136,
      "à´Ĩà´Ĺ": 7137,
      "ther": 7138,
      "Ġà´ĵà´µàµ¼à´¸": 7139,
      "ON": 7140,
      "à´Ńà´ļ": 7141,
      "à´²à´µà´®": 7142,
      "Ġà´ħà´¯à´£": 7143,
      "mail": 7144,
      "à´Łà´ľ": 7145,
      "à´ªà´Łà´ª": 7146,
      "à´łà´ķà´³": 7147,
      "à´ķà´°à´£à´¶": 7148,
      "Ġà´Ķà´¨": 7149,
      "ĠCom": 7150,
      "Ġà´ķàµ¼à´·à´ķàµ»": 7151,
      "àµĨ/": 7152,
      "à´£à´±à´ª": 7153,
      "àµ¼à´ĺà´®": 7154,
      "Ġà´ĸà´ľ": 7155,
      "à´µà´¸à´±": 7156,
      "à´ªà´¥": 7157,
      "à´«à´²à´¨": 7158,
      "à´Łà´°à´²à´ķ": 7159,
      "Ġ193": 7160,
      "ĠÙĪ": 7161,
      "ĠMad": 7162,
      "own": 7163,
      "Ġà´µà´²à´ª": 7164,
      "àµįâĢĮ!": 7165,
      "Ġà´ıà´²à´¯": 7166,
      "à´¨à´ªà´¦": 7167,
      "Ġ183": 7168,
      "ree": 7169,
      "jp": 7170,
      "à´µà´¸à´°à´Ļ": 7171,
      "Ġ203": 7172,
      "Ġ1938": 7173,
      "1000": 7174,
      "Ġà´ľà´¨à´®à´¨à´¸": 7175,
      "Ġà´²à´ŀ": 7176,
      "Ġà´ĵà´Łà´ķ": 7177,
      "Ġà´Ĭà´ŀ": 7178,
      "odi": 7179,
      "àµįâĢį''": 7180,
      "Ġ194": 7181,
      "ame": 7182,
      "160": 7183,
      "à´¸à´ªà´°à´®": 7184,
      "à´ªà´ķàµ½à´ªà´¨": 7185,
      "àµ¼à´¥à´Ļ": 7186,
      "à´Łà´¯à´¯": 7187,
      "àµ¼à´Ĩà´¨": 7188,
      "à´«à´·à´¨": 7189,
      "Ġà´ħà´²à´µàµ»à´¸": 7190,
      "à´ľà´²à´ķ": 7191,
      "à´°à´¦à´®à´²": 7192,
      "Ġ340": 7193,
      "à´¿'.": 7194,
      "à´£à´®à´¯à´®": 7195,
      "Ġ212": 7196,
      "MA": 7197,
      "à´ªà´´à´Ļ": 7198,
      "Ġà´Ĩà´°à´µà´Ļ": 7199,
      "à´Ĥ.''": 7200,
      "Ġà´ķà´®àµ½à´¨": 7201,
      "Ġà´Ĳà´²": 7202,
      "ĠAr": 7203,
      "à´Ĥ.âĢĻ": 7204,
      "à´ĺà´¯": 7205,
      "Ġà´·à´±à´ª": 7206,
      "Ġ222": 7207,
      "à´Ĩàµ¼à´İà´¸": 7208,
      "àµ½à´ĸ": 7209,
      "à´¤à´¤à´¤": 7210,
      "à´·à´®à´£": 7211,
      "àµ¼à´Ĺà´¤": 7212,
      "Ġà´®à´¤à´¬": 7213,
      "à´µà´¯à´²à´±": 7214,
      "à´µàµ¼à´Ĺà´¤": 7215,
      "à´¯à´®à´µà´ķ": 7216,
      "à´®à´¨à´¨": 7217,
      "andr": 7218,
      "Ġà´ĵà´®à´¨à´ª": 7219,
      "Ġà¤": 7220,
      "à´®à´Ĺà´¤": 7221,
      "Ġà´Īà´¡àµ»": 7222,
      "Ġà´ĩà´¸à´¡": 7223,
      "à´¦à´ķà´¨": 7224,
      "à´ļà´²à´¨à´Ļ": 7225,
      "SE": 7226,
      "Ġà´«à´Ļ": 7227,
      "Ġà´ķà´¥à´ķ": 7228,
      "à´°à´ľà´ķà´³": 7229,
      "àµįâĢĿ.": 7230,
      "à´Łà´£à´ķ": 7231,
      "à´ľà´¯à´Ń": 7232,
      "à´ļà´¨à´Łà´¤": 7233,
      "Ġ249": 7234,
      "àµĢ'": 7235,
      "Ġà´İà´²à´¤": 7236,
      "Ġà´¯à´¸": 7237,
      "à´Łà´ķà´¸": 7238,
      "à´§à´®à´±": 7239,
      "à´®à´°à´ķà´¤": 7240,
      "à´ķà´ł": 7241,
      "à´ķà´²à´²": 7242,
      "Ġà´ľà´¨à´°à´ķ": 7243,
      "à´Ńà´µà´®à´²": 7244,
      "Ġà´īà´¦à´°à´¤": 7245,
      "à´¦à´ªà´°": 7246,
      "Ġà´Ĩà´¯à´µà´°": 7247,
      "à´Ĩàµ¼à´¡": 7248,
      "à´¯àµ¼à´¥à´¨": 7249,
      "tern": 7250,
      "Ġà´®àµ»": 7251,
      "àµºà´¸à´±": 7252,
      "ĠSp": 7253,
      "****": 7254,
      "Ġà´«à´µ": 7255,
      "à´µàµ¼à´·à´µ": 7256,
      "ĠUn": 7257,
      "Ġà´īà´±à´ŀ": 7258,
      "à´Łà´ķà´¸à´®": 7259,
      "Ġ1931": 7260,
      "àµ¼à´¶à´ķàµ¾": 7261,
      "âĢĵ-": 7262,
      "à´¾àµį": 7263,
      "à´¸à´¸à´°": 7264,
      "à´¦à´µà´°": 7265,
      "Ġ499": 7266,
      "à´¯àµ¼à´¸": 7267,
      "à´Łà´ķà´°à´¯": 7268,
      "àµįâĢĮ(": 7269,
      "à´¿.'": 7270,
      "Ġà´ªà´±à´Ļ": 7271,
      "à´·à´ķà´ª": 7272,
      "à´·à´ķà´£à´ķ": 7273,
      "Ġà´īà´²à´¯": 7274,
      "àµĹ,": 7275,
      "Ġà´īà´ªà´¸": 7276,
      "Ġ1937": 7277,
      "Ġ255": 7278,
      "à´¦àµ¼à´¶à´ķ": 7279,
      "àµ¼à´µà´¹à´£": 7280,
      "âĢĶ": 7281,
      "à´¤à´°à´ŀ": 7282,
      "àµ¼à´¬à´£": 7283,
      "àµįâĢį'.": 7284,
      "Ġà´īàµ½à´ĺ": 7285,
      "-à´¾âĢįà´Ĥ": 7286,
      "à´ĸàµ»": 7287,
      "Ġà´ħà´±à´ķà´³": 7288,
      "àµ¼à´¬à´²à´ª": 7289,
      "az": 7290,
      "à´ķà´ķà´¯": 7291,
      "à´·à´ķà´ķ": 7292,
      "à´¨à´°à´ļà´¨": 7293,
      "Ġfrom": 7294,
      "Ġà´Ķà´·à´§à´¸à´¸": 7295,
      "à´£à´µàµ¼": 7296,
      "àµģà´Ĥ).": 7297,
      "Ġà´ªà´łà´¨à´±": 7298,
      "Ġà´İàµ½à´¸": 7299,
      "Ġà´¸àµ¼à´µà´ķà´ķ": 7300,
      "à´ļà´µà´¤": 7301,
      "Ġà´µà´°à´µà´±": 7302,
      "à´¯à´¯à´ļ": 7303,
      "à´Ĵà´´": 7304,
      "2008": 7305,
      "à´°à´£à´¸": 7306,
      "à´ķà´°à´£à´ķ": 7307,
      "Ġàµ": 7308,
      "à´¿.....": 7309,
      "à´¯à´µà´³": 7310,
      "à´²à´®à´°": 7311,
      "orm": 7312,
      "ef": 7313,
      "Ġà´ĩà´£à´ķ": 7314,
      "à´®à´łà´¤": 7315,
      "Ġà´İà´İàµ»": 7316,
      "Ġà´Īà´¤": 7317,
      "àµģ'.": 7318,
      "gl": 7319,
      "àµģ/": 7320,
      "à´ªà´±à´¨": 7321,
      "à´Ĺàµ¼à´ķ": 7322,
      "Ġà´ķà´²à´¶": 7323,
      "Ġ1900": 7324,
      "Ġ275": 7325,
      "ĠNovember": 7326,
      "ren": 7327,
      "Ġà´¡à´¯à´¬à´±": 7328,
      "Ġ9447": 7329,
      "IT": 7330,
      "àµĭâĢĿ": 7331,
      "Ġà´ıà´£": 7332,
      "Ġà´¸à´¹à´ļ": 7333,
      "Ġ1939": 7334,
      "Ġà´ķà´µà´¯": 7335,
      "à´ķà´³à´¨": 7336,
      "à´¥à´µà´¤": 7337,
      "à´µà´¦à´¤": 7338,
      "Ġà´ĺà´¨": 7339,
      "Ġà´¤à´²à´ķà´±à´ķ": 7340,
      "à´ªà´¸à´®à´¯": 7341,
      "à´¶à´Ńà´ķ": 7342,
      "Ġà´Ĩà´ĩ": 7343,
      "Ġà´ľà´¬à´²": 7344,
      "à´¯à´¤à´®": 7345,
      "àµĨ.âĢĭ": 7346,
      "ork": 7347,
      "Ġ30000": 7348,
      "à´Ļà´ļ": 7349,
      "à´µà´¸à´°à´®": 7350,
      "à´¾âĢĭàµĩ": 7351,
      "ĠBJP": 7352,
      "Ġà´ĵàµ¾à´±": 7353,
      "Ø³": 7354,
      "à´¤à´¯à´±": 7355,
      "à´¶à´¯à´¨": 7356,
      "Ġà´¬à´¦à´±": 7357,
      "à´·à´ķà´¸à´®": 7358,
      "Ġà´İà´¯àµ¼à´¬": 7359,
      "à´¡à´±à´±": 7360,
      "à´®à´¯à´µ": 7361,
      "Ġà´ķà´°à´¨": 7362,
      "à´¶à´ļ": 7363,
      "à´ªà´ķà´µ": 7364,
      "à´°àµ¼": 7365,
      "à´ªà´¸à´®": 7366,
      "Ġà´¨à´°à´¨": 7367,
      "Ġà´Łà´µ": 7368,
      "Ġà´Ĺàµ¼à´Ńà´¸": 7369,
      "à´§à´ķàµ»": 7370,
      "Ġà´Ĵà´°à´µà´¸à´°": 7371,
      "ib": 7372,
      "ris": 7373,
      "à´¨à´¹à´¦": 7374,
      "à´±à´Ĺà´£": 7375,
      "à´¯à´®à´¶": 7376,
      "à´±à´ķà´ķ": 7377,
      "à´¦à´¯à´¨": 7378,
      "Ġà´İà´Łà´¯": 7379,
      "à´µà´°à´®à´¨": 7380,
      "à´²à´µà´£": 7381,
      "Ġ737": 7382,
      "Ġà´ĩà´³à´Ļ": 7383,
      "Ġà´Ĩà´¦à´°à´¸": 7384,
      "à´Ĺà´®à´¨à´µ": 7385,
      "à´µàµ¼à´Ĺà´Ļ": 7386,
      "à´¨à´°à´µà´¯à´¸": 7387,
      "Ġ1932": 7388,
      "à´¨à´µà´Ł": 7389,
      "à´¨à´ķà´¨": 7390,
      "à´®à´¸à´Ń": 7391,
      "à´±à´ªà´ķà´Łà´¤": 7392,
      "à´²à´®à´¨": 7393,
      "Ġ512": 7394,
      "à´¯à´£à´¸": 7395,
      "ox": 7396,
      "Ġà´ĵà´Ĺ": 7397,
      "Ġ377": 7398,
      "Ġà´ĵàµ¾à´¡": 7399,
      "à´Łà´®à´ķàµ¾à´ķ": 7400,
      "à´¢à´¤à´¯": 7401,
      "à´§à´°àµ»à´ª": 7402,
      "ÃĹ": 7403,
      "Ġà´Ĩà´®à´¯": 7404,
      "à´°à´£à´ķàµ¾": 7405,
      "Ġà´ħà´²à´¹": 7406,
      "Ġà´¸à´¨àµ½": 7407,
      "Ġ:-": 7408,
      "Ġà´¸à´ľà´¯à´¨": 7409,
      "old": 7410,
      "Ġà´Ĩàµ»à´¸": 7411,
      "Ġà´·à´ľ": 7412,
      "à´²à´´": 7413,
      "Ġà´ĩà´£à´ļ": 7414,
      "Ġà´Īà´£à´®": 7415,
      "ank": 7416,
      "2009": 7417,
      "à´ķà´µà´£": 7418,
      "à´¨à´®à´¤": 7419,
      "à´²àµ»à´±": 7420,
      "àµ¼à´ľà´¨": 7421,
      "Ġà´ĩà´£": 7422,
      "à´·à´®à´®à´²": 7423,
      "à´¹à´¨à´ª": 7424,
      "udi": 7425,
      "Ġà´®à´¤à´°": 7426,
      "à´¤à´°à´¬": 7427,
      "à´Ĩà´µ": 7428,
      "Ġ243": 7429,
      "àµ¼à´§à´ķ": 7430,
      "0000": 7431,
      "à´¤à´³à´Ļ": 7432,
      "à´¯à´¤à´±": 7433,
      "à´°à´¸à´ķà´³": 7434,
      "Ġ208": 7435,
      "à´±à´®àµ¼": 7436,
      "Ġà´¸à´®à´®": 7437,
      "à´Ńà´µà´¬à´¹": 7438,
      "Ġ214": 7439,
      "VID": 7440,
      "%),": 7441,
      "te": 7442,
      "ual": 7443,
      "à´Ńà´°à´¨": 7444,
      "Ġà´ĸà´µ": 7445,
      "à´ķàµ½à´¸": 7446,
      "Ġ12000": 7447,
      "à´¢à´¤": 7448,
      "àµįâĢį',": 7449,
      "Ġà´®à´ħà´¦à´¨": 7450,
      "à´¨à´«": 7451,
      "ĠâĢİ": 7452,
      "ater": 7453,
      "à´Ŀ": 7454,
      "Ġà´µà´²à´µ": 7455,
      "à´°à´³à´¸": 7456,
      "à´ħà´¹": 7457,
      "à´¶à´¨à´ªà´°": 7458,
      "á¹": 7459,
      "Ġà´«à´¸àµ½": 7460,
      "à´¯à´¸à´¤": 7461,
      "are": 7462,
      "à´¤àµ»à´µ": 7463,
      "à´«à´²à´ķ": 7464,
      "ĠLe": 7465,
      "à´°à´¦àµ¼à´¶à´¨à´Ļ": 7466,
      "ĠDecember": 7467,
      "AC": 7468,
      "ile": 7469,
      "Ġà´ħàµ½à´ķ": 7470,
      "Ġà´ĵàµ¼": 7471,
      "à´¦à´¨à´ª": 7472,
      "à´¿+": 7473,
      "ark": 7474,
      "ĠEx": 7475,
      "à´°à´¨à´Ł": 7476,
      "à´°à´«à´¸à´°": 7477,
      "Ġà´²à´¯à´£àµ½": 7478,
      "à´±à´ķà´£": 7479,
      "Ġà´Ĵà´°à´°": 7480,
      "Ġà´Ĳà´Ĵà´¸": 7481,
      "ama": 7482,
      "IS": 7483,
      "à´¤à´³à´ª": 7484,
      "à´¦à´ķà´®": 7485,
      "àµ¼à´·à´¨": 7486,
      "à´Ĺà´¨à´µ": 7487,
      "à´¨à´¤à´Ļ": 7488,
      "à´°à´®à´°à´¹": 7489,
      "à´²à´¯àµ»": 7490,
      "Ġà´Ķàµºà´¸": 7491,
      "ĠPubl": 7492,
      "à´°à´³à´¸à´°": 7493,
      "à´¯àµ¼à´¹": 7494,
      "hoto": 7495,
      "*)": 7496,
      "à´¿à´¿": 7497,
      "à´¨à´¯à´ª": 7498,
      "à´¯à´Łà´ª": 7499,
      "à´ªà´¤à´°à´¯": 7500,
      "à´ªà´µà´¨": 7501,
      "Ġà´ħà´¹à´¨": 7502,
      "à´«à´ĸ": 7503,
      "à´¦à´°à´°": 7504,
      "Ġà´¶à´ł": 7505,
      "Ġà´ħà´®à´°à´¤": 7506,
      "àµĭ?âĢĻ": 7507,
      "à´ķà´µà´¤": 7508,
      "à´°à´ķàµ¼": 7509,
      "Ġà´ĺà´°": 7510,
      "à´°à´«à´·à´£à´²": 7511,
      "co": 7512,
      "à´¨à´Ĺà´²": 7513,
      "à´Ĺà´°à´ķ": 7514,
      "àµģ.âĢĭ": 7515,
      "à´¦à´°à´ª": 7516,
      "Ġà´ªà´£à´®à´Łà´ļ": 7517,
      "oll": 7518,
      "ĠHD": 7519,
      "Ġà´ķà´±à´µ": 7520,
      "à´ļà´Łà´ļ": 7521,
      "à´¿''": 7522,
      "ĠCB": 7523,
      "à´¦à´¯à´°": 7524,
      "Ġà´ıà´®": 7525,
      "à´±à´±à´²": 7526,
      "àµģâĢĻ.": 7527,
      "320": 7528,
      "Ġvi": 7529,
      "à´Łàµ¼à´ª": 7530,
      "Ġà´±à´¨": 7531,
      "à´µà´¸à´ķ": 7532,
      "à´±àµ¼à´¸": 7533,
      "à´¿âĢĻ.": 7534,
      "Ġà´ªà´¨à´µ": 7535,
      "à´ŀà´µàµ¼à´ķ": 7536,
      "Ġà´¤à´³àµ¼à´ļ": 7537,
      "Ġà´¬à´¹à´³à´µ": 7538,
      "Ġ290": 7539,
      "à´°à´«à´¸à´±": 7540,
      "àµĩà´¿": 7541,
      "Ġà´īàµ½à´ķ": 7542,
      "Ġà´¤à´°à´Ļ": 7543,
      "Ġà´ıà´ļ": 7544,
      "Ġà´ĵàµ¼à´®à´ª": 7545,
      "à´Ļà´´": 7546,
      "à´¤à´¤à´ķà´³": 7547,
      "à´ľà´¨à´±àµ½": 7548,
      "Ġ354": 7549,
      "àµģàµį,": 7550,
      "à´¸à´°à´¯": 7551,
      "à´°à´µà´¶": 7552,
      "Ġà´Ńà´°à´£à´ķà´°": 7553,
      "ism": 7554,
      "ign": 7555,
      "àµĨâĢĭâĢĭâĢĭâĢĭ": 7556,
      "Ġà´ħà´°à´®": 7557,
      "à´¥à´²à´ªà´°": 7558,
      "Ġà´µà´²à´¨": 7559,
      "amam": 7560,
      "Ġà´¤à´´à´¯à´ª": 7561,
      "Ġà´¬àµ¼à´¤": 7562,
      "Ġà´¦à´¶à´°": 7563,
      "à´¯à´®à´¸à´Ńà´ķà´³": 7564,
      "à´Ĺà´£à´¨à´ķà´³": 7565,
      "à´£à´ľ": 7566,
      "Ġà´¶à´µà´¶à´°": 7567,
      "Ġà´²à´²": 7568,
      "à´³à´±à´Ł": 7569,
      "se": 7570,
      "Ġà´¨à´Łà´®": 7571,
      "à´ķà´°àµ¼à´ķ": 7572,
      "àµ¼à´¥à´¨à´¯": 7573,
      "à´§à´¬": 7574,
      "Ġà´¸à´®à´°à´¨": 7575,
      "ates": 7576,
      "Ġà´ħà´¤à´µà´°": 7577,
      "à´Ĩàµ¼à´Ĳ": 7578,
      "à´¤à´¸à´ŀ": 7579,
      "à´ķà´¤à´²à´¤": 7580,
      "à´¬à´°à´®": 7581,
      "à´®à´°à´ª": 7582,
      "à´Ĩà´¨à´¨": 7583,
      "à´ĩà´İ": 7584,
      "Ġà´ªà´°à´®à´¶": 7585,
      "RE": 7586,
      "à´¤à´Łà´¯": 7587,
      "à´Łà´¯à´Ļ": 7588,
      "à´ľà´®à´²": 7589,
      "àµįâĢĮÂŃ": 7590,
      "Ġà´Ĳà´¸à´²": 7591,
      "Ġà´¨à´µà´¦à´®": 7592,
      "Ġà´Ĩà´µà´²": 7593,
      "à´¡à´¹": 7594,
      "Ġà´®à´¤à´ªà´£": 7595,
      "Ġà´İàµ»à´Ĳà´İà´¯": 7596,
      "à´¿âĢĭâĢĭâĢĭâĢĭâĢĭàµĨ": 7597,
      "à´¬à´¬à´¨": 7598,
      "Ġà´ħà´µà´®à´¤": 7599,
      "à´¶à´¨à´¨": 7600,
      "Ġà´Ńà´°à´£à´Ļ": 7601,
      "à´¦à´¨à´¶": 7602,
      "à´īà´ļ": 7603,
      "Ġà´¨à´Ĺà´°à´¸à´Ńà´ķ": 7604,
      "à´µà´§à´¤": 7605,
      "à´Ļà´®à´¨": 7606,
      "à´¤à´Łà´ļ": 7607,
      "ĠâĹ": 7608,
      "ept": 7609,
      "à´Ĺà´£à´¨à´ķ": 7610,
      "></": 7611,
      "Ġà´¸àµ½à´ķ": 7612,
      "Ġà´¨à´¸à´±": 7613,
      "Ġà´ħàµ¼à´·": 7614,
      "Ġà´ĵà´®": 7615,
      "à´¯à´£à´µ": 7616,
      "à´Ĺà´²à´¶": 7617,
      "Ġà´§à´¨à´²à´ķ": 7618,
      "Ġà´ĩàµ»à´¡à´ķ": 7619,
      "Ġan": 7620,
      "Ġ304": 7621,
      "Ġà´Ĩàµ½à´¬àµ¼à´Ł": 7622,
      "à´¨àµ¼à´¥": 7623,
      "àµ»à´ķà´°à´¯": 7624,
      "Ġ288": 7625,
      "Ġ1941": 7626,
      "Ġà´ķà´¨à´ķà´°": 7627,
      "oli": 7628,
      "PS": 7629,
      "à´¯à´¨à´Ļ": 7630,
      "Ġ207": 7631,
      "à´¦à´¨à´¸": 7632,
      "Ġà´İà´İà´«": 7633,
      "à´ķà´¨à´Łà´ªà´Ł": 7634,
      "Ġà´¹àµ¼à´Ń": 7635,
      "àµį,âĢĭ": 7636,
      "à´Ĺà´¤à´µà´ķ": 7637,
      "à´°à´·àµ»": 7638,
      "Ġà´ķà´®àµ»": 7639,
      "à´¯àµ»à´ķ": 7640,
      "orld": 7641,
      "Ġà´ıà´ķà´¨": 7642,
      "à´²à´µà´±": 7643,
      "à´¸à´¨à´ķà´³": 7644,
      "à´ķà´µà´´": 7645,
      "Ġà´ķà´¥à´ªà´±à´¯": 7646,
      "àµºà´¸àµ»": 7647,
      "à´īà´¨": 7648,
      "à´¸à´°à´ķ": 7649,
      "à´¶à´®à´¯à´ļ": 7650,
      "à´¹à´ķà´³": 7651,
      "à´¡à´¤à´¯": 7652,
      "Ġà´Ĩà´£à´µà´¨": 7653,
      "Ġà´ĩàµ»à´Ł": 7654,
      "Ġ7500": 7655,
      "à´ķà´°à´¤à´ķ": 7656,
      "ï¸": 7657,
      "à´³à´µà´¤": 7658,
      "Ġà´ħà´ĺ": 7659,
      "à´¶à´µà´¦": 7660,
      "Ġà´°àµºà´µ": 7661,
      "à´²à´¤à´ķà´³": 7662,
      "à´¨à´¯à´ľ": 7663,
      "à´µà´ķà´Ļ": 7664,
      "à´¨à´¸à´¯": 7665,
      "Ġà´ĥ": 7666,
      "Ġà´²à´¤à´¯": 7667,
      "Ġà´ĸà´¯": 7668,
      "Ġ216": 7669,
      "/-": 7670,
      "Ġà´ķà´°à´£à´¤": 7671,
      "àµ¼à´µà´¶": 7672,
      "à´°à´µà´ª": 7673,
      "âĢĿ,": 7674,
      "à´¹à´ķà´¸à´®": 7675,
      "mAh": 7676,
      "ne": 7677,
      "à´¤à´ļà´°": 7678,
      "à´¯à´°à´®": 7679,
      "Ġà´ªàµ¼à´ª": 7680,
      "Ġà´ķà´ľ": 7681,
      "àµ»à´®à´¨": 7682,
      "àµºà´·": 7683,
      "Ġ209": 7684,
      "àµ»à´¸à´£": 7685,
      "à´ªà´Łà´Ļ": 7686,
      "à´ķà´°à´Ļ": 7687,
      "à´łà´°à´°": 7688,
      "à´ªà´£à´¨à´¤": 7689,
      "Ġ1917": 7690,
      "Ġ1935": 7691,
      "Ġ218": 7692,
      "à´µàµ½à´¸": 7693,
      "LC": 7694,
      "Ġà´Ĵà´£": 7695,
      "à´°à´¦à´¯": 7696,
      "ern": 7697,
      "Ġ375": 7698,
      "FI": 7699,
      "à´ľà´ªà´ķ": 7700,
      "à´¿.âĢĿ": 7701,
      "Ġà´¡à´¯à´Ĺ": 7702,
      "àµģâĢĻ;": 7703,
      "Ġà´¨à´ĸà´¤": 7704,
      "à´¬àµ¼à´®": 7705,
      "Ġ425": 7706,
      "Ġ228": 7707,
      "à´¶à´ķà´²à´¨à´Ļ": 7708,
      "Ġà´Ĩàµ½à´¬à´¤": 7709,
      "Ġà´İà´Ĳà´µ": 7710,
      "Ġà´²à´ļ": 7711,
      "Ġà´Ĺà´±": 7712,
      "Ġà´·à´¡": 7713,
      "Ġ1944": 7714,
      "à´ķà´µà´²à´¯": 7715,
      "Ġà´ĩà´Łà´ķà´²à´°": 7716,
      "OC": 7717,
      "à´¶à´ķàµ¾": 7718,
      "à´¤à´²à´±": 7719,
      "à´¡à´ķà´³": 7720,
      "à´£à´®à´¨": 7721,
      "à´¤à´¨à´¸à´ľ": 7722,
      "Ġà´®à´¹àµ¼à´·": 7723,
      "Ġ226": 7724,
      "àµį?'": 7725,
      "Ġà´¦à´³à´ªà´¤": 7726,
      "Ġà´ĩà´²à´µàµ»": 7727,
      "110": 7728,
      "à´¤à´¹": 7729,
      "à´²àµ¼à´·": 7730,
      "à´ľà´´": 7731,
      "Ġà´ħà´ªà´¹à´¸": 7732,
      "à´µà´ļà´¨à´¤": 7733,
      "----------------": 7734,
      "Ġat": 7735,
      "à´µà´²à´¯à´¤": 7736,
      "à´³à´µà´Ł": 7737,
      "à´ķà´¸à´¨à´Ļ": 7738,
      "Ġà´Ńà´µàµ»": 7739,
      "Ġà´¸à´¹à´¨à´Ł": 7740,
      "Ġ40000": 7741,
      "àµĨÂŃ": 7742,
      "Ġà´¨à´µà´²": 7743,
      "à´·à´Ńà´°": 7744,
      "à´¿.-": 7745,
      "à´§à´¨à´Ĺ": 7746,
      "ï¸ı": 7747,
      "à´°à´Łà´±": 7748,
      "Ġà´Łà´¸": 7749,
      "à´ªà´¤à´ķà´³": 7750,
      "à´·à´£à´Ń": 7751,
      "à´ĩàµ»à´¸": 7752,
      "Ġà´®à´²à´¦": 7753,
      "eal": 7754,
      "à´ļàµ¼à´ļ": 7755,
      "Ġà´¤à´³à´¯": 7756,
      "à´µà´·à´£": 7757,
      "àµ¼à´®à´±": 7758,
      "Ġà´İà´Łà´ļ": 7759,
      "Ġ217": 7760,
      "à´¯à´¨à´¤": 7761,
      "Ġà´¯à´ļ": 7762,
      "Ġà´ıà´²à´¤": 7763,
      "à´¨à´ķà´¥": 7764,
      "à´±à´¸à´ķà´³": 7765,
      "Ġ211": 7766,
      "Ġà´Ĩàµ»à´¡à´®": 7767,
      "ose": 7768,
      "à´·à´°à´µ": 7769,
      "à´ķà´²à´¨": 7770,
      "à´¥à´¤à´ķàµ¾": 7771,
      "Ġà´ĵà´Łà´ķà´³": 7772,
      "à´µà´ļà´¨à´Ļ": 7773,
      "Ġ376": 7774,
      "IV": 7775,
      "à´ªà´´à´µ": 7776,
      "àµ¼à´§à´¨": 7777,
      "à´Ńà´Ł": 7778,
      "à´«à´¯à´±": 7779,
      "ĠàµįâĢĮ": 7780,
      "àµ½à´İ": 7781,
      "à´¿.[": 7782,
      "Ġà´±à´ķ": 7783,
      "Ġà´ĵà´®à´¶": 7784,
      "à´ķà´£à´Ļ": 7785,
      "ĠChandr": 7786,
      "Ġàµ»": 7787,
      "Ġ1919": 7788,
      "Ġsp": 7789,
      "àµģ'-": 7790,
      "à´ķà´¨à´²": 7791,
      "àµį\".": 7792,
      "à´Łàµ¼à´¤": 7793,
      "hyamam": 7794,
      "aw": 7795,
      "ode": 7796,
      "Ġà´µà´°à´¤": 7797,
      "à´°à´¸à´²": 7798,
      "ond": 7799,
      "àµįâĢįâĢĻ.": 7800,
      "à´¡à´¨à´¶": 7801,
      "Ġà´ĩà´ķà´´": 7802,
      "Ġ232": 7803,
      "Ġ239": 7804,
      ",àµį": 7805,
      "à´ĤâĢĵ": 7806,
      "Ġà´Ĳà´®": 7807,
      "Ġà´ªà´´à´®à´ķ": 7808,
      "àµį?.": 7809,
      "Ġà´¸à´«à´±": 7810,
      "à´µàµ¼à´Ł": 7811,
      "à´¹à´¨à´ķ": 7812,
      "ani": 7813,
      "à´²à´µà´¸à´°": 7814,
      ".(": 7815,
      "à´°à´¯à´Ļ": 7816,
      "ĠÐ": 7817,
      "Ġà´ªà´¹": 7818,
      "à´¡àµ¼à´®": 7819,
      "Ġà´¬à´¸à´¨": 7820,
      "à´°à´ķà´£à´ķ": 7821,
      "Ġà´ħà´µà´¶à´°": 7822,
      "Ġ410": 7823,
      ",âĢĻ": 7824,
      "125": 7825,
      "à´¬à´ľà´±": 7826,
      "àµįâĢĭ'": 7827,
      "ana": 7828,
      "::": 7829,
      "à´µàµ¼à´¨": 7830,
      "Ġà´ķàµ¼à´Ł": 7831,
      "à´¨à´¤à´ķàµ¾": 7832,
      "à´¬à´°àµ»": 7833,
      "Ġà´ĩà´Łà´¯à´¨": 7834,
      "àµ½à´¨à´Ł": 7835,
      "Ġ306": 7836,
      "àµįâĢĮàµįâĢĮ": 7837,
      "à´®à´¤à´¸": 7838,
      "à´Ńà´ķàµ¼à´ķ": 7839,
      "àµĤ....": 7840,
      "Ġà´īàµ¼à´¦": 7841,
      "Ġà´ħà´°à´ª": 7842,
      "Ġà´İà´¯àµ¼à´ķ": 7843,
      "à´ªà´Łà´²à´Ļ": 7844,
      "Ġà´®à´Łà´ª": 7845,
      "Ġà´¤à´Łà´¸à´µ": 7846,
      "Ġà´¨à´¥": 7847,
      "à´²à´ķàµ¼": 7848,
      "Ġà´Ķà´£": 7849,
      "Ġà´Ńà´µà´¨à´µ": 7850,
      "ĠChandrika": 7851,
      "Ġà´ĩà´²à´¨": 7852,
      "Ġà´Ĩà´ķà´®": 7853,
      "Ġ1929": 7854,
      "Ġà´ķà´Łà´²à´®": 7855,
      "ci": 7856,
      "gmail": 7857,
      "àµĢ)": 7858,
      "Ġà´°à´ĸ": 7859,
      "à´Ĥ):": 7860,
      "Ġà´ķà´°à´®à´¨à´¯": 7861,
      "à´ļàµ»à´ķ": 7862,
      "à´Ĺà´ªà´Ł": 7863,
      "à´Łà´¤à´¨": 7864,
      "à´¸àµ¼à´²àµ»à´¡": 7865,
      "Ġà´²à´¹à´³à´¯": 7866,
      "Ġà´ĩà´²à´ª": 7867,
      "Ġà´Ĺà´®": 7868,
      "àµ½à´ªà´¶": 7869,
      ",...": 7870,
      "GB": 7871,
      "ax": 7872,
      "Ð°": 7873,
      "à´¤à´ķà´¸à´®": 7874,
      "rav": 7875,
      "àµ¼à´·à´¤": 7876,
      "Ġ430": 7877,
      "à´¨àµ¼à´ľà´¨": 7878,
      "Ġ000": 7879,
      "Ġ227": 7880,
      "Ġ294": 7881,
      "à´Łà´¸à´®": 7882,
      "Ġà´µà´Łà´µ": 7883,
      "Ġà´¨à´³à´¨": 7884,
      "à´ķàµ»à´¸": 7885,
      "à´¯à´ªà´¨": 7886,
      "Ġà´İà´«à´ķ": 7887,
      "Ġ303": 7888,
      "ink": 7889,
      "à´µà´¸à´®à´¯à´¤": 7890,
      "Ġà´īà´Łà´®à´ķ": 7891,
      "Ġà´ħàµ¼à´¹à´¤": 7892,
      "à´°à´¯à´°": 7893,
      "à´Ĺà´µà´°": 7894,
      "à´®àµ¼à´¶à´µ": 7895,
      "PI": 7896,
      "hat": 7897,
      "à´¸à´¸àµ¼": 7898,
      "à´·à´£àµ¼à´ķ": 7899,
      "2006": 7900,
      "à´µà´®à´¨": 7901,
      "àµĭ),": 7902,
      "Ġà´·à´±": 7903,
      "à´µàµ¼à´¦": 7904,
      "Ġ1925": 7905,
      "à´¤à´ķàµ¼à´¤": 7906,
      "à´°à´¬à´°": 7907,
      "àµĭâĢĮ": 7908,
      "Ġà´Īà´¡": 7909,
      "Ġ1928": 7910,
      "Ġ2400": 7911,
      "à´ªà´²à´£": 7912,
      "Ġà´ªà´´à´¯à´ª": 7913,
      "oy": 7914,
      "à´Łà´¯à´®": 7915,
      "à´£à´ķà´µ": 7916,
      "à´¸à´Ĺ": 7917,
      "Ġà´¸à´¹à´ķà´°à´£à´Ļ": 7918,
      "à´Īà´¨": 7919,
      "à´Ĭà´«": 7920,
      "àµģà´Ĥ.\"": 7921,
      "Ġà´ħàµ½à´Ĺ": 7922,
      "à´¤à´£à´²": 7923,
      "à´¡à´µà´®": 7924,
      "à´ªà´Łà´¨": 7925,
      "Ġà´Ĩà´µà´°à´£": 7926,
      "à´ķà´±à´¨": 7927,
      "ari": 7928,
      "à´«àµ¼à´Ł": 7929,
      "à´¯à´ķà´¥": 7930,
      "Ġà´§à´®": 7931,
      "Ġà´ħà´ªà´ķà´Łà´ª": 7932,
      "à´Īà´¶": 7933,
      "ĠIndian": 7934,
      "à´¯à´ĺà´Łà´ķà´®": 7935,
      "nic": 7936,
      "Ø¨": 7937,
      "à´³à´µà´£": 7938,
      "Ġà´¸à´¨à´¯": 7939,
      "à´¶à´µàµ»": 7940,
      "à´ķà´±à´¯": 7941,
      "Ġà´ħà´ķà´²à´µ": 7942,
      "Ġam": 7943,
      "à´µà´«": 7944,
      "àµĪ'": 7945,
      "à´µà´²à´°": 7946,
      "Ġà´Ĩà´¨à´ķàµ¾": 7947,
      "à´±à´®à´Łà´¯": 7948,
      "ĠØ§ÙĦÙĦ": 7949,
      "uth": 7950,
      "à´Ĺà´±à´±": 7951,
      "à´«à´¯àµ¼": 7952,
      "Ġ273": 7953,
      "OS": 7954,
      "li": 7955,
      "à´®à´°à´®": 7956,
      "Ġà´Ĩà´¦à´°à´£": 7957,
      "Ġà´¬à´¸à´µà´°": 7958,
      "à´¬àµ¼à´¸": 7959,
      "à´Łàµ¼à´¬": 7960,
      "ĠØ¹": 7961,
      "................": 7962,
      "à´ĤâĢĭâĢĭâĢĭ": 7963,
      "à´·à´°à´°": 7964,
      "à´¤à´®à´ķà´¨": 7965,
      "à´¬à´¨à´¨": 7966,
      "àµºà´¸àµ½": 7967,
      "à´ĵà´Ĺà´¸": 7968,
      "BN": 7969,
      "Äģ": 7970,
      "à´ķà´²à´¤": 7971,
      "à´±à´Łà´ķ": 7972,
      "à´°à´£à´¯à´¨": 7973,
      "Ġà´ªà´°à´®à´®": 7974,
      "ery": 7975,
      "àµĨ).": 7976,
      "à´Ĥ.....": 7977,
      "Ġà´¸à´¹à´µà´°": 7978,
      "à´´à´¯à´Łà´ļ": 7979,
      "eptember": 7980,
      "Ġas": 7981,
      "à´ķà´ķà´®": 7982,
      "à´¦à´Ń": 7983,
      "à´¯à´¤à´°": 7984,
      "à´¤à´²à´¨": 7985,
      "àµºà´¸à´£": 7986,
      "Ġà´ªà´´à´®à´¯": 7987,
      "âĢĭâĢĭâĢĭâĢĭàµĨ": 7988,
      "Ġà´µà´¯àµ½": 7989,
      "lo": 7990,
      "à´µà´²à´¤à´¯": 7991,
      "à´¸à´°à´¸": 7992,
      "à´°à´¤à´°à´¤": 7993,
      "Ġà´Īà´±à´¨": 7994,
      "à´¯à´°à´Ļ": 7995,
      "Ġ560": 7996,
      "Ġà´ľà´²à´¸à´®": 7997,
      "2004": 7998,
      "à´°à´°à´ļà´¨à´¯": 7999,
      "à´Ĺà´®à´¨à´®": 8000,
      "àµĭ?''": 8001,
      "unn": 8002,
      "à´ķà´·à´£à´Ļ": 8003,
      "à´¸à´ķà´°": 8004,
      "à´¤à´¨à´¶": 8005,
      "Ġà´®à´£à´°": 8006,
      "Ġ233": 8007,
      "à´µà´°à´ķà´³": 8008,
      "Ġ440": 8009,
      "à´¤àµ½à´®": 8010,
      "à´Łà´¤à´ķà´³": 8011,
      "Ġà´ķà´¬à´±à´Łà´ķ": 8012,
      "Ġà´¸à´®àµ»à´¸": 8013,
      "Ġà´µà´³à´Ļ": 8014,
      "à´ªà´£à´¬": 8015,
      "Ġ978": 8016,
      "Ġ235": 8017,
      "Ġà´ķàµºà´«": 8018,
      "àµģà´Ĥ',": 8019,
      "Ġà´²à´¹à´³": 8020,
      "Ġà´ħà´µà´¶à´¯": 8021,
      "Ġà´ķàµºà´®": 8022,
      "à´ķà´ļà´°": 8023,
      "à´®à´°à´£à´Ļ": 8024,
      "à´ķà´°à´ļ": 8025,
      "utes": 8026,
      "à´ķà´¶à´°": 8027,
      "Ġà´¦à´Ĺ": 8028,
      "Ġà´µà´³à´¯à´Ļ": 8029,
      "à´¿):": 8030,
      "ĠMadhyamam": 8031,
      "Ġ272": 8032,
      "130": 8033,
      "ave": 8034,
      "à´¾;": 8035,
      "à´³à´ķàµ¾à´ķ": 8036,
      "Ġ777": 8037,
      "Ġ236": 8038,
      "Ġ295": 8039,
      "Ġà´ķà´¨à´®": 8040,
      "Ġà´¸à´®à´¯à´®à´²": 8041,
      "à´®à´µàµ¼à´®": 8042,
      "Ġ349": 8043,
      "ĠâĢĭàµĪ": 8044,
      "2007": 8045,
      "Ø¯": 8046,
      "à´ªà´µà´²": 8047,
      "à´®à´²à´°": 8048,
      "àµ»à´±à´¤": 8049,
      "à´¥à´ķàµ¾à´ķ": 8050,
      "à´ķà´Łà´ķà´°à´®": 8051,
      "à´°à´Ńà´°à´£à´ª": 8052,
      "ech": 8053,
      "à¸": 8054,
      "àµįâĢĭ)": 8055,
      "Ġà´ħà´¶à´°à´£à´°": 8056,
      "à²": 8057,
      "à´¸à´µà´°": 8058,
      "à´ħà´ĸ": 8059,
      "Ġà´Ĩà´µà´Ł": 8060,
      "à´ķà´¸à´¨à´ªà´¦": 8061,
      "An": 8062,
      "MS": 8063,
      "à´Ĵà´ķà´³": 8064,
      "àµĢâĢĭâĢĭ": 8065,
      "Ġ267": 8066,
      "à´¿âĢĻ,": 8067,
      "080": 8068,
      "à´³à´³à´ª": 8069,
      "à´ŀà´µà´¯": 8070,
      "à´¨à´¤à´¤à´²à´¯": 8071,
      "à´ĸà´°à´£à´µ": 8072,
      "âĢĭ.": 8073,
      "à´ħà´·": 8074,
      "Ġ1857": 8075,
      "ical": 8076,
      "Ġà´ħà´¨à´Ń": 8077,
      "Ġà´ĵà´®à´²": 8078,
      "à´°à´£à´¯à´¦": 8079,
      "ĠSeptember": 8080,
      "Ġà´±à´«à´±à´¨": 8081,
      "àµ»à´¬à´²à´¤": 8082,
      "Ġà´ħà´µà´¶à´¤à´ķà´³": 8083,
      "à´®àµ»à´±": 8084,
      "à´®àµ¾à´ķ": 8085,
      "Ġà´¡à´Ļ": 8086,
      "à´ķà´²à´¹": 8087,
      "Ġ660": 8088,
      "à´¶à´°à´¹": 8089,
      "àµĪâĢĻ": 8090,
      "Ġà´Ĵà´Ĺ": 8091,
      "Ġ223": 8092,
      "Ġà´¸à´°à´³": 8093,
      "Ġ1918": 8094,
      "Ġ242": 8095,
      "Ġà´ħà´ľà´ª": 8096,
      "ead": 8097,
      "Ġen": 8098,
      "à´§à´¶à´ķ": 8099,
      "à´¹à´ªà´°": 8100,
      "à´´à´±": 8101,
      "Ġà´¬àµ¾à´Ĺ": 8102,
      "ĠPl": 8103,
      "Ġà´Ĺàµ¼à´Ńà´ļ": 8104,
      "à´ĺà´ª": 8105,
      "Ġ244": 8106,
      "Ġà´ĺà´Łà´ķà´µ": 8107,
      "à´¤à´§": 8108,
      "à´®à´±à´¤": 8109,
      "à´®à´¶à´¤": 8110,
      "Ġà´ľà´¤": 8111,
      "Ġà´¶à´¤à´ķà´¤": 8112,
      "Ġà´Ĵà´°à´Ń": 8113,
      "Ġà´Ĩà´¦à´°à´®": 8114,
      "Ġà´ªà´£à´ļ": 8115,
      "àµģ,âĢĻ": 8116,
      "Ġà´ªà´°à´¸à´¹": 8117,
      "Ġà´ªà´Łà´¯à´£": 8118,
      "115": 8119,
      "SR": 8120,
      "àµĪ)": 8121,
      "Ġà´ªà´±à´¯à´¤": 8122,
      "Ġà´ĵà´£à´±": 8123,
      "à´®àµºà´µ": 8124,
      "âĢį,": 8125,
      "à´¨à´°à´®à´£": 8126,
      "à´°à´¤à´²à´Ļ": 8127,
      "à´«à´¯à´²": 8128,
      "Ġà´ħàµ½à´ľ": 8129,
      "310": 8130,
      "Ġ301": 8131,
      "Ġ241": 8132,
      "Ġ246": 8133,
      "à´®à´°à´µ": 8134,
      "à´ķà´¨à´Ł": 8135,
      "Ġ1927": 8136,
      "tis": 8137,
      "ĠĠĠĠĠĠĠĠĠĠĠĠĠĠĠĠĠĠĠĠĠ": 8138,
      "à¤¾": 8139,
      "Ġra": 8140,
      "à´ľà´ķàµ¾": 8141,
      "Ġà´īà´¶": 8142,
      "Ġà´¶à´±à´«": 8143,
      "Ġà´µà´°à´²à´ķ": 8144,
      "à´µà´¤à´µ": 8145,
      "Ġ1943": 8146,
      "à´±àµ¼à´«": 8147,
      "Ġ269": 8148,
      "àµįâĢįâĢĻ,": 8149,
      "à´£à´¨à´²": 8150,
      "à´ķà´³à´µ": 8151,
      "Ġà´ĵà´®à´¨à´¯": 8152,
      "àµĭ?;": 8153,
      "ere": 8154,
      "Ġà´ħàµ½à´¸": 8155,
      "à´¯à´¹àµ¼à´ľ": 8156,
      "jpg": 8157,
      "ts": 8158,
      "à´ŀà´¤à´¨": 8159,
      "à´·à´ķàµ¼à´¤": 8160,
      "à´¯à´¦àµ¼à´¶à´¨": 8161,
      "à´ªà´²à´µ": 8162,
      "Ġà´ķà´²à´¹à´¤": 8163,
      "à´³à´µà´²": 8164,
      "à´ļà´¯à´¯": 8165,
      "à´¸à´ķà´¨": 8166,
      "à´İà´¯à´°": 8167,
      "Ġà´ħà´ªà´ķà´Łà´Ń": 8168,
      "Ġ238": 8169,
      "amp": 8170,
      "ays": 8171,
      "wiki": 8172,
      "Ġà´ļà´²à´¨à´¶": 8173,
      "AI": 8174,
      "EN": 8175,
      "à´ķà´¸à´®à´¯à´¤": 8176,
      "à´¹à´¸à´¤": 8177,
      "à´¹àµ¼à´ľ": 8178,
      "à´¹à´ļà´Łà´Ļ": 8179,
      "à´İàµ»à´¸": 8180,
      "à´±à´ļà´Ł": 8181,
      "à´ķà´µà´ķ": 8182,
      "Ġà´¸à´®à´ļà´¤": 8183,
      "Ġà´§à´µà´³": 8184,
      "ĠSh": 8185,
      "Ġà´ħàµ¼à´¥à´®": 8186,
      "à´ļàµ½à´¸": 8187,
      "Ġà´¬à´²à´µ": 8188,
      "à´°à´µàµ¼": 8189,
      "à´£à´ķà´®": 8190,
      "à´°à´¤à´²": 8191,
      "Ġà´±à´Ĭà´«": 8192,
      "à´ªà´¤à´±": 8193,
      "à´¤à´¨à´ª": 8194,
      "Ġà´®à´¤à´¸à´®": 8195,
      "à´±àµ¼à´ľ": 8196,
      "Ġà´ªà´´à´¯à´ªà´Ł": 8197,
      "101": 8198,
      "àµģ',": 8199,
      "à´§à´ľà´²à´¤": 8200,
      "ET": 8201,
      "Ġà´«à´ĸ": 8202,
      "Ġ540": 8203,
      "à´°à´µà´ļà´¨à´¤": 8204,
      "Ġà´Ńà´°à´¤àµ»": 8205,
      "Ġà´¸à´«à´²": 8206,
      "à´¬à´²à´µ": 8207,
      "à´Ńà´µà´ķ": 8208,
      "Ġà´ĩà´Łà´¯à´²": 8209,
      "Ġà´ħà´µà´¯à´µà´®": 8210,
      "440": 8211,
      "Ø¹": 8212,
      "à´¡à´µà´±": 8213,
      "Ġ321": 8214,
      "128": 8215,
      "Ġà´ħàµ¼à´¹à´¤à´ª": 8216,
      "à´·à´®à´¤à´ķà´³": 8217,
      "Ġà´¤àµ½à´¸": 8218,
      "à´Ĺàµ¼à´ª": 8219,
      "Ġà´²à´±": 8220,
      "Ġà´Ķà´ļ": 8221,
      "Ġ299": 8222,
      "ick": 8223,
      "2001": 8224,
      "Ġà´ħà´¯àµ½à´°": 8225,
      "OR": 8226,
      "uv": 8227,
      "à´¨à´µà´£": 8228,
      "à´ªà´²à´°": 8229,
      "à´¶à´ªà´°à´®": 8230,
      "Ġà´ķà´Łà´ķàµ¾à´ķ": 8231,
      "à´¶à´ķà´¸à´®": 8232,
      "àµįâĢį';": 8233,
      "à´°à´µà´µ": 8234,
      "Ġà´Ĳà´²àµ»à´¡": 8235,
      "à´ļà´¨à´ªà´°à´®": 8236,
      "Ġà´Ĩàµ¼à´Ń": 8237,
      "à´ªà´±à´¯à´£à´®": 8238,
      "Ġ......": 8239,
      "Ġà´¬àµ¼à´Ĺ": 8240,
      "ĠCOVID": 8241,
      "ire": 8242,
      "àµį[": 8243,
      "Ġà´ħà´µà´¤à´°à´£à´µ": 8244,
      "Ġà´ķà´°à´ķà´³": 8245,
      "à´ĩà´Łà´ª": 8246,
      "àµ¼à´Ĺà´¯": 8247,
      "à´ļà´°à´¨": 8248,
      "Ġà´¤à´´à´¯": 8249,
      "àµĤâĢĭâĢĭ": 8250,
      "à´ŀà´¯à´ķ": 8251,
      "à´Ńà´°à´£à´®": 8252,
      "à´ĸà´¡": 8253,
      "à´ķà´²à´¶": 8254,
      "Ġ335": 8255,
      "Ġà´ħà´²à´¸à´®": 8256,
      "à´ªà´£àµ¼à´®": 8257,
      "à´¯àµ½à´±": 8258,
      "à´ªà´§": 8259,
      "à´¸à´®à´¤": 8260,
      "à´¸à´°à´£à´®": 8261,
      "Ġà´ķà´Ĺ": 8262,
      "à´°àµ»à´ª": 8263,
      "Ġ257": 8264,
      "Ġ286": 8265,
      "ĠAd": 8266,
      "àµģà´¾": 8267,
      "Ġà´ªà´±à´³": 8268,
      "Ġà´ħà´§à´°": 8269,
      "Ġà´ķà´²à´¶à´²": 8270,
      "Ġ1933": 8271,
      "Ġà´¸àµºà´¸": 8272,
      "Ġà´¨àµ¼à´ķ": 8273,
      "à´¥à´²à´ķ": 8274,
      "Ġà´¸à´¹à´¨à´¤": 8275,
      "àµ¼à´·àµ½": 8276,
      "àµĨà´ĤâĢĭ": 8277,
      "Ġà´®àµ½à´¸à´°à´Ļ": 8278,
      "à´Łàµ»à´±": 8279,
      "Ġ305": 8280,
      "ance": 8281,
      "2005": 8282,
      "ĠISBN": 8283,
      "à´¦àµ½": 8284,
      "Ġà´Ńà´µà´¨à´¨": 8285,
      "à´®à´¤à´ª": 8286,
      "à´ªà´°à´°": 8287,
      "à´°à´³à´¶": 8288,
      "Ġà´¨à´Ĺà´°à´ķ": 8289,
      "à´Łàµ»à´ª": 8290,
      "à´Ĥ.âĢĭ": 8291,
      "à´Ĺà´¸à´®à´¤": 8292,
      "Ġ1080": 8293,
      "àµ¼à´Ńà´°à´®": 8294,
      "Ġà´Īà´£à´¤": 8295,
      "Ġà´īà´ªà´µà´¸": 8296,
      "Ġ345": 8297,
      "Ġà´¤à´²à´µà´°": 8298,
      "àµį..!": 8299,
      "ife": 8300,
      "Ġà´ħà´¯à´¨": 8301,
      "Ġà´Ńà´ľ": 8302,
      "à´ķà´ªà´Ł": 8303,
      "àµ¼à´µà´±": 8304,
      "Ġà´¸à´ķà´²à´¤": 8305,
      "Ġà´¤à´±à´ªà´±": 8306,
      "à´¤à´´": 8307,
      "à´®à´²à´¤à´¯": 8308,
      "à´Łà´ķà´²": 8309,
      "ĠNo": 8310,
      "Ġà´®àµ¼à´¦à´¨": 8311,
      "ĠDe": 8312,
      "à´¨à´´": 8313,
      "à´ļà´§": 8314,
      "Ġ231": 8315,
      "à´²à´¹à´°": 8316,
      "à´¸àµ¾à´«": 8317,
      "à´¬à´±àµ½": 8318,
      "à´Ĩàµ¼à´ķ": 8319,
      "àµ½à´¬àµº": 8320,
      "Ġà´¹àµ¼à´Ńà´ľàµ»": 8321,
      "Ġ1922": 8322,
      "à´Ĵà´³": 8323,
      "Ġà´¤à´Łà´¯à´£à´¯": 8324,
      "àµ¼à´Ĺàµ»": 8325,
      "à´¤à´Ńà´Łà´¨": 8326,
      "Ġà´§à´¨à´ª": 8327,
      "à´¯à´¸à´Ļ": 8328,
      "Ġà´¸à´®à´°à´ªà´¨": 8329,
      "Ġà´ħàµ½à´¤": 8330,
      "Ġvs": 8331,
      "ron": 8332,
      "à´ĤâĢ¢": 8333,
      "à´µà´¯à´¤": 8334,
      "à´³à´³à´ķ": 8335,
      "àµĢ..": 8336,
      "à´ķàµ¾à´ª": 8337,
      "à´ªà´¤à´°": 8338,
      "Ġà´®à´¤à´ªà´°à´µ": 8339,
      "à´±à´®à´Ł": 8340,
      "Ġsh": 8341,
      "Ġinter": 8342,
      "à´°àµ»à´±": 8343,
      "à´¨à´µà´´": 8344,
      "Ġme": 8345,
      "ĠBl": 8346,
      "Ġà´ĩà´Łà´®à´²à´ķ": 8347,
      "Ġà´Ĺà´ŀ": 8348,
      "àµ¼à´®àµ»": 8349,
      "à´¹à´®à´²": 8350,
      "Ġ259": 8351,
      "à´īà´°": 8352,
      "àµ¼à´²à´Ń": 8353,
      "à´ľà´¯à´¯": 8354,
      "à´¢à´Ĺ": 8355,
      "ĠĠĠĠĠĠĠ": 8356,
      "Ġà´İà´¯àµ¼à´«": 8357,
      "ayam": 8358,
      "tics": 8359,
      "Ġà´ıà´ľàµ»à´±": 8360,
      "àµ»à´¦": 8361,
      "àµ½à´«à´¯àµ¼": 8362,
      "olic": 8363,
      "oot": 8364,
      "à´¤à´¨à´ķà´³": 8365,
[...]
